▁, 876140
▁ 639810
s 542100
▁. 388308
▁the 317257
的 316458
▁。 246703
▁and 225017
▁to 211406
▁a 201880
' 176240
▁of 174359
t 164313
▁in 152301
▁that 141548
▁i 133207
▁it 112932
re 109052
▁we 108344
d 101251
▁you 100912
ing 96231
▁is 93185
ed 80436
在 75572
e 75234
是 74457
▁this 69799
▁" 68537
▁? 68283
了 67255
▁so 63704
m 60041
y 59215
n 59178
▁for 53687
▁我 52330
ly 50655
er 50091
有 49930
: 49726
我 49116
▁they 49006
▁was 47225
▁are 46476
我們 45686
一 45406
人 45309
c 45073
▁我們 43226
▁be 43094
▁but 42903
▁have 41588
▁on 41552
不 41480
al 40946
▁what 39644
▁with 39510
會 38691
▁can 38542
g 38154
、 37968
上 37877
和 37525
▁as 36689
r 36274
a 36055
ve 35111
到 34834
le 34570
ri 34197
o 33466
ic 33320
▁at 33063
來 32861
ll 32711
▁do 32384
大 31703
▁not 31034
or 31015
▁about 30586
▁there 29868
▁my 29804
th 29183
▁all 29095
▁me 28770
說 28645
ar 28536
ur 28449
你 28177
▁one 27476
▁an 27340
中 27254
in 26641
▁like 26497
▁or 26450
p 26404
一個 26228
很 26080
ce 25866
▁he 25751
b 25618
▁people 25583
es 25415
▁our 25093
這 24849
▁「 24712
▁」 24628
要 24576
▁from 24365
ation 24057
li 24011
▁if 23960
▁de 23933
能 23797
對 23546
ent 23538
時 23306
▁p 23062
用 22655
▁when 21805
都 21659
▁just 21588
▁e 21483
他們 21336
地 21267
k 21198
▁st 21084
▁co 20972
▁now 20736
年 20710
出 20679
▁these 20669
▁con 20667
▁f 20398
就 20018
▁這 19807
▁us 19673
▁out 19658
u 19637
h 19599
去 19553
▁by 19258
ion 19239
▁在 19058
▁how 19054
被 19050
所 19027
▁because 18946
▁up 18655
子 18584
▁know 18520
這些 18456
可以 18408
▁c 18401
這個 18361
▁但 18345
▁你 18225
做 18144
ch 18027
▁more 17952
▁them 17857
ate 17829
il 17772
▁their 17648
ter 17549
也 17403
為 17386
▁who 17275
▁your 17187
ity 17079
ers 16987
▁had 16946
著 16728
▁see 16672
very 16650
過 16647
it 16536
下 16509
▁no 16429
▁were 16353
▁would 16267
▁ex 16181
它 16152
▁b 16070
最 15734
把 15726
ck 15675
▁他們 15647
想 15644
en 15503
w 15444
▁going 15444
好 15397
f 15269
他 15218
▁think 15137
▁get 15119
於 14915
an 14819
ment 14811
從 14774
成 14716
▁some 14519
te 14469
on 14343
多 14332
小 14203
▁go 14198
ive 14163
▁which 14145
體 14056
ci 13995
ro 13988
生 13928
ol 13905
x 13857
▁world 13781
▁time 13718
看 13682
個 13565
▁really 13514
▁other 13510
ra 13468
▁po 13447
裡 13336
▁here 13230
沒有 13217
得 13216
性 13211
者 13192
un 13064
▁then 13005
更 12994
▁has 12836
▁will 12733
將 12732
est 12718
▁mo 12711
▁所以 12700
ru 12656
ge 12641
▁don 12620
與 12589
的人 12588
開始 12465
▁into 12385
而 12352
ul 12269
家 12236
以 12179
op 12098
ne 12087
後 12079
om 12067
i 12004
▁where 11908
ies 11903
▁she 11853
心 11724
as 11658
▁這是 11642
▁way 11640
▁could 11551
面 11541
▁而 11538
就是 11529
ver 11499
tic 11489
us 11467
id 11430
lo 11377
▁se 11354
點 11292
行 11279
▁w 11271
力 11270
▁un 11246
▁years 11235
age 11233
z 11202
▁look 11170
▁even 11162
lu 11158
vi 11062
▁want 11031
▁work 11005
▁他 10987
之 10929
ph 10919
de 10873
▁su 10863
▁new 10854
▁actually 10850
可 10842
非常 10841
分 10823
▁sp 10738
▁make 10735
▁over 10701
給 10686
▁right 10682
動 10619
▁been 10551
那 10551
像 10545
▁things 10493
tra 10461
比 10442
pe 10261
▁它 10243
知道 10233
tion 10206
不是 10186
數 10167
▁pro 10164
▁well 10141
able 10139
com 10136
el 10108
還 10069
l 10066
ad 10047
ted 10022
those 9990
化 9984
▁ma 9979
ect 9940
高 9931
▁first 9832
▁因為 9777
天 9709
▁than 9669
無 9638
▁need 9612
長 9611
斯 9600
法 9473
ance 9471
v 9451
▁di 9451
ting 9440
ant 9389
▁; 9369
讓 9360
需要 9358
▁two 9301
▁vi 9301
同 9293
發 9246
▁also 9228
▁dis 9224
▁his 9214
ma 9212
開 9205
la 9202
種 9176
▁ba 9170
手 9146
機 9135
▁most 9118
物 9089
▁bo 9053
自己 9052
ction 9039
正 9031
學 9012
▁back 9006
進 8986
▁something 8963
▁ra 8952
ally 8940
▁ho 8931
▁! 8928
當 8900
▁life 8894
什麼 8881
5 8807
位 8807
ry 8802
ence 8792
▁take 8792
重 8778
前 8745
加 8738
im 8725
事 8717
▁her 8686
特 8674
定 8638
理 8634
. 8633
▁any 8594
可能 8562
na 8540
▁ro 8527
▁much 8526
公 8501
或 8492
um 8472
度 8467
ical 8454
一些 8420
ow 8417
at 8413
合 8411
▁come 8402
▁en 8395
如何 8395
▁said 8355
水 8351
量 8339
▁only 8338
me 8327
外 8311
▁part 8294
相 8294
▁many 8240
▁every 8233
is 8227
▁sh 8188
問題 8186
▁li 8182
0 8166
ld 8161
入 8144
我的 8091
mo 8070
▁pre 8048
向 8038
嗎 8036
作 8030
po 8023
已經 8002
qu 7999
min 7956
▁br 7942
發現 7917
sh 7903
ist 7881
這樣 7866
那些 7863
色 7861
iv 7847
ug 7825
ng 7809
▁got 7789
co 7775
感 7763
期 7746
圖 7740
▁talk 7719
名 7718
ff 7707
▁te 7705
▁lot 7698
ig 7693
bi 7670
▁ca 7669
方 7664
本 7649
我們的 7645
▁let 7637
回 7608
▁thing 7591
▁say 7580
les 7572
氣 7564
她 7551
▁有 7542
放 7524
兩 7497
mp 7482
沒 7450
及 7447
▁little 7440
▁kind 7433
▁human 7421
自 7323
▁但是 7290
車 7290
業 7282
一樣 7269
國 7266
ti 7256
世界 7256
to 7248
頭 7245
跟 7234
ho 7223
現在 7211
▁car 7200
2 7191
部 7169
內 7166
起 7164
ated 7146
只 7140
意 7086
ut 7077
平 7073
利 7042
di 7031
▁different 7029
▁good 7021
ni 7012
發生 7011
▁through 7004
cu 7000
改變 6984
ok 6976
星 6967
▁這些 6955
明 6932
你們 6919
ous 6882
▁然後 6867
等 6860
如 6843
▁did 6836
▁why 6833
愛 6833
ke 6831
▁那 6824
見 6822
▁la 6784
新 6779
克 6757
and 6753
教 6741
ine 6718
常 6713
論 6711
▁use 6699
場 6695
ct 6678
▁around 6675
end 6667
美 6667
道 6666
▁being 6663
間 6657
no 6597
tu 6572
其他 6544
▁show 6534
美國 6522
先 6521
國家 6512
▁down 6495
▁da 6490
工 6486
▁tell 6476
pi 6474
視 6474
拉 6461
身 6435
的是 6425
確 6412
電 6410
大家 6406
人們 6389
三 6384
民 6381
談 6379
▁ta 6377
研究 6374
看到 6343
he 6335
真的 6334
▁她 6333
4 6295
7 6291
▁現在 6275
▁j 6273
▁pa 6267
處 6253
人類 6233
所有 6230
▁same 6226
▁cha 6221
▁g 6215
▁gr 6207
▁是 6181
再 6161
cy 6158
ful 6139
工作 6139
pt 6123
打 6122
▁si 6116
ia 6110
問 6077
▁不 6076
幾 6059
邊 6047
▁al 6042
爾 6037
帶 6024
▁comp 6015
光 6010
▁ch 6008
十 6006
▁em 6001
走 5989
次 5987
使用 5974
▁如果 5970
信 5957
你的 5945
聽 5940
mi 5928
▁change 5919
▁day 5909
達 5909
因為 5885
▁put 5868
太 5866
呢 5855
▁ha 5844
不會 5834
9 5816
認為 5805
bo 5800
▁lo 5798
必須 5787
ir 5784
ot 5771
os 5752
受 5732
▁after 5728
轉 5709
現 5704
海 5696
能夠 5695
▁這個 5694
ty 5692
▁big 5688
任何 5674
全 5655
此 5623
▁fact 5622
保 5619
文 5619
然 5606
red 5604
才 5593
▁find 5590
▁system 5571
1 5569
▁try 5569
金 5566
▁start 5558
j 5551
ite 5550
▁great 5532
▁inter 5520
-- 5516
很多 5508
線 5507
▁thank 5488
想要 5488
ary 5482
▁three 5476
花 5461
表 5461
這種 5452
它們 5442
▁help 5438
其 5426
原 5424
兒 5414
又 5411
許多 5399
▁k 5397
設計 5391
演 5388
fi 5373
one 5367
▁dr 5344
am 5321
ag 5315
vo 5313
ness 5312
ian 5297
▁today 5292
實 5283
▁mean 5280
ta 5267
▁own 5259
由 5247
port 5236
ize 5231
▁per 5228
▁fe 5222
ber 5216
▁called 5215
▁ne 5201
ual 5199
ition 5193
ors 5187
亞 5181
情 5179
ard 5167
代 5166
字 5149
都是 5144
使 5135
ster 5128
▁wi 5122
▁ga 5114
par 5112
▁doing 5109
▁sa 5100
一種 5098
流 5098
提 5095
▁就 5093
件 5075
if 5068
時間 5068
系統 5047
▁percent 5035
類 5025
路 5020
無法 5018
gen 4999
的時候 4993
8 4991
▁made 4989
並 4984
收 4983
交 4974
主 4972
馬 4940
形 4937
▁should 4936
rate 4930
群 4928
▁man 4927
只是 4898
bu 4895
▁give 4895
西 4895
應該 4888
四 4884
▁end 4881
器 4869
ab 4868
書 4862
變 4859
傳 4856
德 4854
3 4834
寫 4816
知 4814
▁real 4802
萬 4802
▁sc 4794
und 4787
希望 4786
因 4779
白 4767
▁high 4752
卻 4749
通 4748
日 4742
難 4741
6 4738
▁didn 4737
che 4733
五 4731
強 4717
每 4714
ture 4701
▁app 4691
話 4687
接 4677
ca 4675
wa 4662
▁before 4657
樣 4647
基 4633
員 4627
片 4625
▁20 4615
則 4611
led 4609
▁love 4606
fin 4603
ris 4598
百 4598
女 4595
▁off 4594
ish 4591
士 4584
cra 4579
nd 4570
指 4566
▁brain 4561
ha 4553
▁him 4551
▁each 4549
▁fi 4547
覺得 4542
em 4538
得到 4525
ure 4524
導 4524
觀 4519
權 4518
步 4504
反 4503
cent 4502
▁idea 4501
▁tri 4498
▁might 4493
▁當 4486
們 4486
型 4481
▁came 4478
他們的 4478
ible 4473
怎麼 4460
了解 4458
社會 4455
來說 4451
▁year 4449
▁2 4437
▁n 4433
ning 4421
▁important 4421
就會 4412
▁understand 4408
mon 4400
人的 4400
質 4398
ap 4390
▁never 4389
▁still 4389
▁trans 4389
▁mar 4381
管 4375
fl 4365
影響 4359
▁thought 4354
qui 4353
極 4346
▁last 4341
上的 4339
▁another 4335
的事 4330
但 4327
千 4325
ral 4324
中的 4324
這樣的 4324
深 4323
▁better 4316
條 4310
ran 4300
例 4293
ious 4292
pp 4287
ner 4277
% 4273
be 4271
應 4271
ten 4270
▁play 4270
已 4265
▁fun 4261
▁act 4259
ac 4237
▁started 4234
失 4226
真 4214
▁live 4212
ger 4211
關 4208
ities 4201
生物 4195
設 4186
’ 4185
▁design 4176
程 4169
the 4167
fa 4166
▁found 4164
師 4155
ight 4152
消 4146
con 4141
ial 4138
制 4138
角 4136
▁ti 4132
其實 4129
成為 4127
▁mu 4125
▁o 4125
▁000 4120
▁19 4119
▁long 4117
▁如果你 4114
病 4114
▁too 4110
各 4109
創造 4103
取 4099
ative 4098
▁而且 4096
一點 4096
▁together 4095
fo 4094
不同 4085
完全 4079
立 4076
專 4075
剛 4065
案 4062
▁art 4061
結 4043
tro 4040
老 4035
歲 4034
der 4032
自己的 4029
▁number 4027
▁water 4022
▁school 4020
張 4017
▁women 4016
▁example 4014
別 4004
act 4000
gg 3999
認 3992
品 3987
▁point 3986
式 3985
va 3984
▁able 3984
公司 3984
的問題 3982
之後 3979
ating 3977
算 3969
其中 3966
這裡 3964
▁story 3960
東西 3959
出來 3952
非 3952
ward 3945
各位 3932
起來 3928
tain 3927
▁我的 3926
▁gene 3925
少 3925
▁我想 3921
格 3921
▁few 3912
奇 3912
pu 3907
▁place 3907
該 3906
組 3902
▁problem 3897
吧 3894
▁under 3893
▁call 3890
快 3889
遠 3880
▁hand 3879
▁feel 3875
chi 3872
▁next 3870
▁♫ 3868
tor 3860
態 3860
有些 3855
▁million 3853
▁bit 3843
畫 3840
相信 3830
引 3827
的東西 3817
記 3815
▁does 3809
fe 3806
哪 3797
的方式 3797
ism 3794
▁home 3787
里 3776
害 3761
議 3760
請 3758
log 3757
離 3752
▁may 3751
近 3748
▁data 3744
hu 3743
單 3741
▁health 3729
住 3729
▁between 3726
▁grow 3720
▁imp 3712
僅 3710
孩子 3705
ip 3702
科技 3702
那個 3699
維 3698
眼 3692
也是 3683
任 3683
結果 3683
▁again 3680
如此 3676
mer 3675
球 3673
這是 3671
費 3664
uc 3663
▁也 3663
press 3658
拿 3654
整 3653
生活 3645
▁went 3643
告訴 3642
▁從 3640
▁used 3637
解決 3636
腦 3630
mit 3629
黑 3625
正在 3623
以及 3618
安 3618
裝 3612
只有 3602
更多 3602
還是 3601
- 3600
決定 3598
不能 3595
網 3595
微 3589
pla 3588
▁care 3585
集 3585
一直 3579
▁ask 3574
一下 3574
錢 3572
想像 3571
▁v 3563
創 3559
▁believe 3557
試 3553
▁far 3549
▁become 3547
生命 3547
他的 3541
空 3535
▁develop 3533
的地方 3532
是個 3531
層 3526
▁question 3521
▁ago 3513
過去 3508
▁second 3501
對於 3501
總 3501
▁war 3500
▁gu 3497
▁course 3496
不同的 3495
還有 3495
20 3493
飛 3491
av 3489
解 3485
為了 3481
▁am 3480
進行 3478
ving 3470
▁plan 3470
▁small 3466
置 3466
巴 3464
直 3460
hy 3459
共 3455
▁謝謝 3454
細胞 3451
素 3450
足 3447
▁technology 3445
像是 3445
▁read 3433
▁na 3431
發展 3430
報 3425
錯 3422
未來 3417
fer 3415
喜歡 3410
關於 3410
變成 3408
調 3405
ase 3401
如果 3401
50 3398
▁hard 3397
▁maybe 3396
▁el 3386
早 3386
節 3385
便 3383
ki 3379
地球 3379
死 3371
▁space 3368
命 3366
活 3366
英 3366
▁children 3361
gi 3358
找到 3353
pl 3345
做的 3344
▁le 3339
▁light 3339
▁就是 3332
▁old 3322
待 3321
謝 3318
▁10 3316
10 3315
▁因此 3315
for 3313
是在 3309
率 3309
選 3306
king 3305
▁好 3304
房 3304
首 3302
▁對 3298
▁person 3296
▁tr 3295
好的 3295
二 3290
站 3288
▁power 3287
存在 3286
▁hi 3280
建 3274
故事 3272
來自 3265
除 3265
產生 3257
推 3255
感覺 3252
▁doesn 3251
同時 3251
ose 3250
▁less 3250
▁four 3245
電腦 3245
照 3242
女性 3240
第一 3240
越 3239
選擇 3233
ever 3231
測 3230
▁form 3229
經濟 3228
低 3226
▁experience 3224
▁還有 3224
玩 3219
go 3214
▁always 3213
man 3199
即 3198
止 3197
往 3193
熱 3193
今天 3186
運 3183
並不 3181
▁你們 3176
網路 3175
存 3173
服 3169
bl 3168
ib 3160
▁ever 3158
方式 3158
聯 3158
情況 3155
科學 3155
覺 3152
密 3149
當時 3147
▁cap 3146
真正 3145
per 3138
▁create 3134
狀 3133
果 3130
新的 3126
▁它們 3125
門 3125
經 3120
▁dec 3112
▁wanted 3112
一位 3109
▁cur 3108
假 3107
▁並 3105
▁1 3103
技術 3094
樂 3094
部分 3093
舉 3092
▁move 3089
神 3086
比較 3083
城市 3079
組織 3079
簡單 3075
絕 3075
oc 3071
兩個 3060
▁lead 3057
看看 3057
求 3054
ny 3053
台 3051
差 3051
標 3049
稱 3049
ator 3045
阿 3037
驚 3034
▁men 3032
政府 3028
區 3027
象 3025
火 3023
▁mis 3011
重要的 3009
朋友 3008
大腦 3007
▁sw 3006
── 3003
▁away 2999
落 2996
▁working 2995
料 2990
卡 2989
讀 2989
ft 2984
▁但我 2981
▁creat 2980
▁face 2976
ba 2975
改 2975
less 2972
細 2971
▁looking 2968
計 2967
顯 2967
ring 2965
動物 2965
傷 2964
ists 2962
▁rep 2960
億 2957
▁set 2956
▁sort 2955
聲 2947
致 2947
院 2947
能力 2941
這麼 2940
▁everything 2939
▁large 2932
產 2929
資料 2926
且 2924
羅 2924
半 2918
▁country 2914
pa 2913
▁means 2911
▁pi 2905
wi 2903
出現 2903
是一個 2903
row 2900
▁done 2900
林 2897
另一 2894
是我們 2891
號 2889
全球 2888
醫 2888
環境 2883
超 2882
▁要 2879
▁reason 2878
▁sub 2873
口 2865
完 2863
ling 2861
是什麼 2860
在這 2858
抗 2858
▁while 2851
過程 2851
不知道 2850
健康 2850
布 2850
連 2848
use 2847
▁whole 2847
幫助 2842
之一 2841
提供 2840
持 2839
▁open 2834
一次 2828
月 2821
▁times 2819
是否 2819
尼 2818
段 2813
為什麼 2812
某 2810
未 2809
▁africa 2808
▁red 2808
一起 2806
19 2805
▁future 2803
son 2800
▁met 2799
▁process 2793
突 2793
機會 2783
▁information 2782
牠們 2781
▁enough 2775
▁social 2769
spect 2768
▁building 2768
義 2766
約 2764
que 2761
一切 2761
▁moment 2758
▁mil 2757
讓我 2756
ie 2754
效 2753
棒 2751
造 2749
是因為 2747
▁所以我 2746
▁run 2743
擊 2743
思考 2739
叫 2738
整個 2737
▁win 2736
▁job 2733
性的 2732
查 2732
吃 2731
ex 2728
排 2727
line 2726
望 2724
講 2724
▁add 2723
▁body 2723
商 2722
lar 2721
關係 2720
▁five 2717
form 2716
▁without 2713
▁mind 2710
影 2710
▁earth 2709
元 2708
身體 2708
▁best 2699
▁case 2699
▁thinking 2698
ton 2697
▁ju 2697
照片 2690
▁ja 2688
吸 2684
有一個 2680
▁name 2677
室 2677
學習 2673
air 2661
ak 2661
行為 2661
包 2659
▁walk 2656
思 2653
互 2652
▁group 2650
症 2645
展 2643
▁left 2642
之間 2642
▁kids 2641
學生 2641
停 2636
有人 2635
年前 2634
重要 2634
之前 2631
列 2631
▁keep 2630
造成 2630
個人 2626
▁這就是 2625
族 2624
資訊 2624
魚 2623
戰 2622
所有的 2619
藝術 2619
成功 2617
找 2615
▁food 2614
hi 2612
每個 2612
份 2609
地方 2608
▁cl 2607
bra 2604
獨 2599
cho 2598
ized 2598
▁lives 2598
▁guy 2595
眾 2594
▁research 2593
ron 2592
證 2592
變得 2590
▁sign 2588
留 2588
例子 2587
世 2586
時候 2584
▁money 2581
殺 2581
▁answer 2580
掉 2578
基本 2572
ake 2570
▁making 2564
▁young 2564
感到 2561
▁sy 2558
透過 2554
石 2553
適 2553
ability 2552
▁和 2550
甚至 2544
▁book 2541
座 2541
第二 2538
▁sense 2537
探 2537
getting 2536
▁head 2536
風 2536
▁imagine 2535
▁computer 2532
波 2530
▁family 2527
▁teach 2525
語 2514
▁side 2513
nu 2512
▁city 2512
索 2512
的事情 2510
讓我們 2510
些 2509
計畫 2509
▁project 2506
事實 2504
精 2501
錄 2498
val 2496
· 2494
事情 2494
數據 2494
▁stand 2493
六 2491
市 2489
目 2489
▁以及 2487
到了 2486
方法 2486
lt 2485
▁free 2485
何 2484
媽 2482
▁我們的 2481
級 2479
▁connect 2476
預 2475
ned 2474
ang 2471
▁一個 2468
▁matter 2463
州 2463
規 2461
擁有 2460
60 2457
的故事 2457
久 2456
了一個 2455
是我 2455
買 2451
基因 2450
非洲 2448
▁energy 2441
蘭 2441
▁bring 2436
▁close 2435
▁200 2432
▁3 2432
▁以 2430
建築 2430
景 2429
投 2427
▁planet 2426
血 2426
富 2422
聲音 2421
ps 2420
▁build 2417
山 2417
就像 2416
▁hope 2414
▁讓 2412
養 2411
▁such 2408
▁science 2407
自然 2407
學家 2405
題 2405
教育 2404
今 2392
主義 2391
的話 2390
染 2389
興 2389
▁事實上 2386
納 2385
製造 2384
▁sound 2382
誰 2382
送 2382
可能會 2381
▁picture 2379
▁seem 2378
客 2377
限 2375
▁basic 2373
或是 2369
的工作 2369
▁pass 2368
安全 2367
射 2364
▁across 2362
▁share 2362
▁room 2360
▁remember 2354
威 2353
幸 2352
▁both 2350
▁沒有 2349
▁often 2348
激 2348
ship 2347
▁tu 2347
▁global 2344
▁allow 2341
的時間 2340
▁stop 2338
務 2337
異 2337
土 2336
▁government 2334
▁就像 2333
團 2333
▁line 2332
▁或 2331
▁當然 2329
策 2328
音樂 2327
空間 2326
學校 2325
律 2325
fu 2323
告 2321
▁product 2319
息 2319
普 2313
rs 2312
需 2312
資 2310
都有 2310
處理 2309
▁air 2307
夠 2307
居 2307
▁r 2305
建立 2301
▁probably 2300
▁week 2298
ped 2295
食物 2292
注 2285
▁once 2281
食 2277
底 2274
然後 2273
穿 2273
滿 2271
伊 2266
廣 2264
曾 2264
最後 2262
善 2260
換 2260
▁每 2259
拍 2258
▁pretty 2252
▁someone 2250
▁makes 2241
▁child 2238
運動 2237
塊 2236
特別 2236
having 2235
斷 2235
▁ob 2232
▁image 2228
所以 2226
合作 2225
破 2225
她們 2223
系 2221
▁fra 2220
▁happened 2211
▁else 2210
文化 2208
晚 2208
隨 2206
12 2205
目標 2205
▁sea 2204
▁pain 2203
至 2201
負 2201
幫 2197
▁girl 2195
刻 2195
歷史 2195
▁du 2194
▁那是 2191
▁control 2189
18 2187
▁ways 2184
準 2181
▁countries 2180
代表 2178
背 2178
南 2177
都會 2177
▁simple 2176
up 2175
▁community 2174
▁learn 2173
▁effect 2171
免 2171
▁50 2170
▁half 2170
助 2168
洲 2165
▁anything 2164
▁business 2163
有關 2161
疾病 2160
藥 2159
ular 2158
▁且 2157
▁你可以 2157
辦 2153
將會 2150
才能 2150
政治 2150
▁asked 2148
只要 2148
quite 2146
令人 2146
▁land 2145
▁single 2145
▁yet 2145
就能 2145
驗 2145
圍 2144
▁mov 2143
▁later 2142
▁public 2141
注意 2141
音 2141
有個 2140
▁billion 2139
land 2135
並不是 2134
gue 2133
▁age 2132
▁living 2132
移 2131
▁30 2128
意思 2127
we 2124
▁sure 2124
另一個 2124
笑 2124
實驗 2123
護 2123
超過 2123
童 2122
界 2121
降 2120
▁所以我們 2119
▁interesting 2118
痛 2117
責 2117
治療 2114
述 2109
▁bad 2108
80 2106
▁environment 2106
▁study 2104
歐 2104
看起來 2103
複雜 2102
▁saw 2100
▁wonder 2095
核 2095
清 2094
男 2094
對我 2093
ze 2092
爭 2090
科 2088
《 2086
》 2086
▁black 2082
▁complete 2082
幾乎 2082
嚴 2080
醫生 2080
源 2078
神經 2076
▁turn 2073
米 2072
在這裡 2071
社區 2071
控制 2068
軍 2067
▁happen 2066
大約 2066
影片 2066
▁treat 2064
利用 2063
方面 2062
▁seen 2061
下來 2059
意識 2059
夫 2057
項 2057
▁當我 2056
▁coming 2055
▁instead 2055
▁model 2055
way 2053
終 2053
] 2052
▁top 2052
分享 2052
▁yes 2051
年輕 2051
▁almost 2048
▁music 2043
▁disease 2042
▁hear 2042
▁lab 2039
相當 2039
▁test 2038
詞 2038
▁already 2037
一天 2037
古 2034
▁cells 2033
istic 2032
io 2030
▁deep 2030
依 2028
進入 2023
的世界 2022
目前 2021
▁thousand 2020
家庭 2020
▁days 2019
具 2019
統 2014
lock 2013
▁rest 2013
活動 2013
30 2012
▁heart 2009
▁states 2007
攝 2007
回到 2006
▁machine 2003
▁possible 2001
念 2000
史 1999
接受 1999
壞 1998
▁level 1997
▁patient 1997
術 1996
▁或是 1995
溫 1994
樹 1992
較 1992
靠 1992
▁nothing 1991
cal 1990
▁為什麼 1989
容易 1989
▁game 1988
做出 1987
▁watch 1985
短 1984
▁house 1981
候 1979
▁u 1978
▁history 1977
▁whether 1976
皮 1976
▁dollars 1972
一定 1971
營 1970
▁leg 1969
▁sometimes 1968
反應 1968
採 1966
通常 1965
▁inside 1964
答案 1961
▁happens 1960
day 1959
個月 1958
言 1955
做了 1950
靈 1950
▁speak 1948
保護 1947
她的 1947
▁myself 1946
▁ok 1946
▁within 1945
參與 1945
▁har 1943
更好 1942
▁如果我們 1941
復 1941
支 1935
考 1935
多少 1934
▁problems 1933
百萬 1933
▁six 1931
不要 1931
有點 1926
觸 1922
ga 1921
▁mother 1921
▁piece 1921
▁我在 1921
▁div 1918
油 1917
巨 1916
製 1915
▁我們可以 1913
▁low 1912
旅 1912
臨 1912
遇 1912
▁language 1911
小時 1910
意義 1910
世界上 1909
人生 1905
▁since 1903
慢 1903
政 1903
大學 1902
犯 1901
▁我認為 1899
do 1898
農 1897
價值 1896
哈 1895
語言 1894
世紀 1892
端 1892
▁那麼 1890
劇 1889
大部分 1888
播 1887
衛 1886
▁而是 1885
菌 1885
親 1885
件事 1883
完成 1883
▁law 1882
▁words 1881
救 1881
▁stuff 1880
▁order 1879
成長 1879
構 1879
▁discover 1878
工具 1877
隊 1877
▁until 1876
承 1875
▁figure 1873
▁program 1873
▁再 1873
想法 1872
領 1872
▁接著 1871
警 1870
ach 1869
在一起 1869
不到 1864
宇宙 1864
十年 1862
怕 1862
苦 1861
▁organ 1860
的方法 1860
▁particular 1859
▁stories 1859
官 1859
▁says 1858
▁certain 1856
升 1856
各種 1853
... 1851
▁class 1851
很好 1851
▁state 1845
▁這種 1845
盡 1844
課 1843
追 1840
▁goes 1839
▁wrong 1838
監 1836
▁self 1835
舞 1834
哥 1830
益 1830
▁night 1828
怪 1828
▁prop 1827
自由 1825
挑戰 1823
科學家 1823
材 1820
的想法 1820
▁american 1819
▁wasn 1811
狀況 1811
做到 1810
70 1808
實際上 1808
繼續 1808
▁isn 1807
▁entire 1805
▁everyone 1804
也會 1804
中心 1802
▁[ 1801
▁true 1801
▁result 1798
light 1797
死亡 1795
機器人 1794
社 1790
切 1788
▁hundred 1787
森 1787
▁robot 1786
重新 1784
▁fast 1782
▁step 1782
看到的 1778
▁saying 1777
▁video 1776
聽到 1774
united 1772
▁team 1772
▁讓我們 1772
印 1768
屬 1768
仍然 1767
▁must 1766
紅 1766
▁woman 1765
尋 1765
▁months 1764
每天 1762
力量 1761
▁though 1759
▁full 1756
努力 1756
這件事 1756
就可以 1755
劃 1754
中國 1753
把它 1753
用來 1753
解釋 1753
那麼 1753
模式 1752
速 1751
叫做 1749
小孩 1749
勢 1746
持續 1746
裏 1746
▁issue 1745
機器 1745
▁past 1744
包括 1741
模 1741
修 1739
必 1738
會有 1738
▁你會 1737
易 1737
派 1737
▁cancer 1736
▁cost 1736
患 1736
▁challenge 1735
▁exist 1735
嘗試 1735
太陽 1735
▁knew 1733
遊戲 1733
ets 1732
讓你 1732
經歷 1730
而言 1730
八 1727
行動 1727
看見 1726
階 1725
際 1725
價 1724
概念 1723
11 1722
▁market 1721
▁meet 1719
▁ideas 1717
▁individual 1715
冰 1715
帶來 1715
理解 1715
值 1714
▁kill 1712
連結 1712
bb 1711
▁amazing 1711
▁force 1711
試著 1711
北 1710
▁star 1709
範 1707
付 1705
▁became 1704
不斷 1703
革 1703
別人 1702
倍 1699
可以看到 1697
▁不過 1696
▁我是 1696
境 1696
▁100 1694
▁最後 1693
身上 1692
▁我要 1691
優 1691
河 1690
mbi 1689
歌 1688
板 1687
▁invest 1685
經驗 1684
▁education 1683
▁micro 1683
▁或者 1682
左 1682
職 1679
配 1679
園 1678
防 1674
我想 1672
運作 1672
在那 1670
的生活 1670
▁比如 1667
▁against 1666
▁term 1664
街 1664
▁pay 1663
▁value 1662
含 1662
ping 1661
作品 1661
增加 1661
雙 1661
頓 1661
電影 1660
▁beautiful 1658
檢 1658
鏡 1658
顯示 1658
病人 1656
積 1656
面對 1654
▁friends 1653
▁learned 1653
▁train 1651
和我 1651
▁everybody 1650
環 1648
週 1648
跑 1646
啊 1644
七 1642
當中 1642
▁cause 1641
或許 1641
▁collect 1639
印度 1638
疑 1637
▁leave 1636
女孩 1636
▁follow 1633
清楚 1633
紙 1633
▁oh 1631
200 1630
智慧 1630
牠 1630
倫 1628
90 1627
句 1627
▁heard 1626
協助 1626
grad 1625
以前 1625
通過 1625
受到 1624
▁當你 1622
夢 1620
觀察 1620
記得 1618
賽 1617
▁甚至 1615
蓋 1615
衝 1615
van 1614
▁也許 1609
taking 1606
蟲 1604
▁exactly 1602
麗 1602
▁clear 1601
▁drug 1601
部份 1601
▁support 1600
人口 1598
▁mass 1597
▁object 1595
ological 1593
▁students 1593
out 1592
▁personal 1592
▁super 1592
ology 1591
▁color 1591
初 1590
參 1590
分鐘 1587
▁difference 1586
也有 1586
描 1586
▁但我們 1585
▁drive 1583
事物 1583
緊 1583
▁engine 1581
唯一 1581
第一個 1581
臉 1580
容 1578
隻 1578
略 1577
真實 1577
針 1577
▁company 1576
架 1576
▁themselves 1575
▁sun 1574
幾個 1573
準備 1573
▁couple 1572
▁也就是 1572
▁society 1571
接下來 1571
▁ocean 1569
曲 1569
▁safe 1567
han 1566
餐 1566
右 1565
支持 1565
周 1564
年代 1564
during 1563
▁risk 1563
資源 1563
備 1562
奮 1562
not 1561
▁god 1561
▁questions 1561
▁natural 1560
▁protect 1559
漸 1559
館 1559
彈 1558
敗 1558
結構 1557
辦法 1557
一般 1554
▁listen 1553
母 1553
華 1553
貧 1552
也不 1551
怎樣 1550
評 1548
▁cell 1547
缺 1547
▁view 1546
▁decided 1545
船 1545
跳 1545
▁produce 1544
▁然而 1544
據 1544
主要 1543
▁front 1542
▁built 1541
▁material 1541
海洋 1541
總是 1538
▁hold 1536
▁along 1533
習 1533
肯 1532
藥物 1532
顧 1531
▁focus 1528
博 1528
領域 1528
恐 1527
感受 1526
的孩子 1525
那裡 1525
某些 1524
based 1523
▁je 1523
▁fish 1521
▁讓我 1521
產品 1521
▁common 1520
▁yea 1520
木 1517
沙 1517
治 1517
▁culture 1515
▁當我們 1514
訊息 1514
離開 1512
根 1509
窮 1508
自我 1507
▁ourselves 1505
大概 1505
討論 1504
▁middle 1503
有很多 1503
▁feeling 1502
▁word 1502
而且 1502
腳 1502
▁我會 1501
介 1499
數字 1498
同樣的 1496
如果你 1496
▁india 1495
▁nature 1494
塔 1494
寶 1494
根本 1494
▁experiment 1493
有趣的 1491
罪 1491
迷 1491
太空 1490
父母 1490
讓人 1489
演講 1488
▁short 1487
▁phone 1486
▁break 1485
▁species 1485
全世界 1485
呼 1485
生產 1485
▁america 1484
女人 1484
的研究 1484
都在 1484
糟 1483
▁places 1481
想到 1481
那樣 1480
▁solution 1478
▁spend 1477
ization 1473
▁type 1473
▁universe 1473
▁death 1472
輸 1469
▁deal 1468
示 1468
電話 1468
在那裡 1467
▁並且 1466
程式 1466
▁write 1462
▁difficult 1460
▁south 1457
▁arm 1456
▁san 1453
並沒有 1453
作為 1453
市場 1453
簡 1451
▁somebody 1449
▁hours 1448
亮 1448
放在 1448
lan 1447
病毒 1446
▁雖然 1442
控 1441
▁40 1440
▁couldn 1440
▁wait 1440
曾經 1440
醫療 1440
▁bar 1439
原因 1439
分子 1437
每一個 1437
▁fail 1436
▁於是 1436
▁white 1435
仍 1435
諾 1435
♪ 1434
移動 1434
▁learning 1433
版 1433
聚 1433
避 1433
惡 1432
▁rather 1431
潛 1431
聖 1430
頂 1430
▁因為我 1429
孩 1429
骨 1429
▁若 1426
喜 1424
看著 1424
裡面 1424
這項 1424
▁para 1423
▁center 1422
▁eat 1422
▁emotion 1422
執 1422
彼此 1422
▁early 1421
一張 1421
企業 1420
艾 1420
蛋 1419
軟 1418
▁street 1417
智 1417
▁huge 1415
輕 1413
▁fear 1412
取得 1412
▁而我 1411
▁doctor 1410
碼 1410
▁complex 1409
▁happening 1409
▁behavior 1408
▁itself 1405
不再 1405
服務 1404
第一次 1404
▁economic 1403
是一種 1403
▁turns 1401
塑 1401
▁internet 1400
物質 1400
▁blood 1399
▁reach 1399
地區 1399
決 1399
建造 1398
福 1398
一項 1397
住在 1397
▁expect 1396
▁near 1396
媒體 1396
▁animals 1392
▁third 1391
麻 1389
典 1388
永遠 1388
▁circ 1387
▁felt 1387
▁die 1386
▁即使 1386
▁你知道 1384
施 1383
▁relationship 1381
14 1380
團隊 1380
這個問題 1380
▁worked 1379
碳 1379
肉 1378
▁finally 1377
▁population 1377
懷 1377
班 1376
▁voice 1373
散 1373
程度 1373
困難 1372
時代 1372
有效 1372
相關 1372
局 1371
▁green 1369
▁parents 1368
壓 1368
嗯 1367
退 1366
我們可以 1365
礎 1365
讓他們 1365
15 1364
願 1364
▁created 1363
東 1360
偏 1359
理論 1359
投資 1357
直接 1356
疫 1354
♫♫ 1353
知識 1353
睡 1352
技 1351
紀 1351
▁cut 1350
▁dream 1350
▁local 1350
美元 1350
▁choice 1349
▁companies 1349
▁least 1349
最近 1346
速度 1346
▁15 1343
▁access 1343
▁won 1343
很重要 1343
毒 1342
紐約 1342
困 1341
是由 1341
uck 1340
洛 1340
40 1339
坦 1339
暗 1338
▁reality 1337
洞 1337
戰爭 1336
▁structure 1335
來看 1335
戶 1335
銀 1335
▁decision 1334
▁outside 1334
▁record 1332
手機 1332
類似 1332
▁gre 1329
慮 1329
一年 1326
藏 1326
▁oka 1325
▁rule 1325
票 1325
▁climate 1324
奧 1324
順 1324
察 1323
的原因 1322
青 1322
二十 1321
▁friend 1320
不只是 1320
其他人 1320
甚麼 1320
遺 1320
▁bio 1319
▁present 1319
區域 1317
爲 1317
▁impact 1316
伯 1316
▁political 1315
味 1314
續 1313
序 1312
混 1311
開發 1311
▁began 1310
一段 1310
▁vari 1309
不可能 1308
雷 1308
有多 1304
給我 1304
▁amount 1303
目的 1303
▁count 1302
母親 1302
稱為 1302
最終 1301
變化 1301
表現 1300
▁pick 1299
坐 1299
▁media 1298
▁poor 1298
16 1297
▁fight 1297
▁yourself 1297
九 1297
衣 1297
— 1295
▁network 1295
暴 1294
▁easy 1293
什麽 1293
爸 1293
訊 1293
▁behind 1290
▁stay 1290
領導 1290
▁perhaps 1289
編 1289
▁main 1287
有可能 1286
確實 1286
▁needed 1285
脫 1285
製作 1285
▁fall 1284
▁perfect 1284
興趣 1284
謂 1283
迫 1283
▁boy 1282
傳統 1282
▁manage 1281
▁minutes 1281
增 1281
汽 1281
液 1281
▁given 1280
▁field 1277
瑞 1276
距 1276
另外 1274
或者 1274
第三 1274
賣 1274
藉 1273
英國 1272
▁cities 1271
▁eyes 1271
複 1271
▁measure 1270
男人 1270
禮 1270
認識 1270
lam 1269
▁physical 1269
▁powerful 1269
▁buy 1268
三個 1268
鼓 1266
棄 1265
能源 1265
▁movement 1264
▁father 1263
關鍵 1263
▁他說 1257
▁known 1256
隱 1253
▁key 1252
▁scientists 1252
令 1252
time 1251
那種 1251
刺 1249
弱 1249
氧 1249
▁shape 1248
心理 1248
▁consider 1247
表示 1246
擴 1245
能量 1245
▁century 1243
▁gave 1243
▁wall 1243
▁york 1243
現實 1243
失去 1242
▁seven 1241
告訴我 1240
▁tree 1239
▁perform 1238
▁在我 1238
但是 1238
形成 1238
現今 1238
▁scale 1237
均 1237
▁generation 1236
伴 1235
障 1235
冷 1234
情緒 1234
發明 1234
醒 1234
▁organization 1233
▁paper 1233
當然 1232
功能 1231
絲 1231
▁simply 1230
作用 1230
實驗室 1230
越來越 1230
▁sent 1229
▁longer 1228
你可以 1228
捕 1228
某種 1228
很難 1227
許 1227
診 1226
阻 1226
▁conversation 1225
▁neuro 1223
析 1223
這麼做 1223
事件 1222
管理 1222
數學 1221
▁fly 1218
▁interact 1215
▁major 1215
也可以 1215
展示 1215
私 1215
▁changed 1213
▁north 1213
▁slow 1212
▁我知道 1212
至少 1212
有什麼 1211
想想 1210
暴力 1210
說明 1210
植物 1208
臟 1207
▁strong 1206
▁我們需要 1206
google 1205
證明 1205
▁normal 1204
減少 1204
藍 1203
危 1201
宗 1201
提出 1201
機構 1201
預測 1201
勵 1200
啟 1200
套 1200
尋找 1200
牛 1200
筆 1200
▁realized 1199
內容 1199
財 1198
巧 1197
第 1197
訪 1196
▁size 1195
一隻 1195
掌 1194
祖 1194
根據 1193
當地 1193
訓練 1193
▁map 1191
▁save 1191
獲得 1191
▁explain 1190
▁national 1190
抱 1190
現象 1190
判 1189
賴 1189
共同 1188
要求 1188
學到 1187
懂 1187
精神 1187
結束 1187
▁china 1186
壓力 1186
融 1186
趣 1185
print 1184
▁但這 1184
充滿 1184
到底 1184
▁taken 1183
▁europe 1182
亂 1182
綠 1182
牙 1181
酒 1181
得要 1180
野 1177
▁represent 1176
13 1175
▁fire 1175
最大的 1175
縮 1174
島 1173
測試 1173
▁approach 1169
倒 1169
▁solve 1168
▁increase 1167
▁turned 1167
減 1167
協 1166
忘 1166
▁begin 1165
徵 1165
▁eight 1164
▁send 1164
識 1164
▁office 1162
尺 1162
竟 1162
還要 1161
新聞 1160
育 1160
覆 1160
麥 1159
▁surface 1158
▁travel 1158
似乎 1158
佛 1158
電子 1158
並非 1157
佈 1157
遍 1157
▁continue 1156
▁dark 1155
▁blue 1153
老師 1153
▁attention 1152
燃 1152
貝 1152
上面 1151
床 1151
快樂 1151
風險 1150
否 1147
意味著 1146
擔 1146
▁either 1145
燈 1145
達到 1144
▁special 1143
也許 1143
▁kid 1141
獎 1141
民主 1140
熟 1140
▁lost 1137
▁pattern 1137
▁那就是 1136
創新 1136
觀眾 1136
▁draw 1135
應用 1135
姆 1134
狂 1133
險 1132
...... 1131
圈 1131
章 1131
規模 1131
▁device 1130
模型 1130
▁happy 1129
▁因為我們 1129
隨著 1129
▁condition 1128
呈 1128
快速 1128
本身 1128
估 1126
永 1125
零 1125
▁ground 1124
婚 1124
實際 1124
靜 1124
▁service 1123
癌症 1123
願意 1122
▁hit 1120
▁provide 1120
競 1120
良 1120
▁chris 1119
瞭解 1119
草 1119
▁obvious 1118
予 1118
回答 1118
▁audience 1117
父親 1117
▁film 1116
化學 1115
危險 1114
延 1114
男性 1113
十分 1112
始 1110
找出 1110
旁 1110
時刻 1110
錯誤 1110
以為 1107
izing 1106
坐在 1106
▁born 1104
▁similar 1103
店 1103
▁medical 1102
▁potential 1102
人員 1102
供 1102
友 1101
每個人都 1099
衡 1099
side 1098
記憶 1098
這一 1098
▁absolute 1096
恐懼 1096
議題 1096
▁quickly 1094
具有 1094
村 1094
擔心 1093
詩 1093
▁對吧 1090
運用 1090
▁beginning 1089
擬 1089
經過 1089
毛 1086
計算 1085
大多數 1084
雄 1084
堂 1082
當你 1082
告訴你 1081
曼 1080
浪 1075
儘 1074
隔 1074
廠 1072
遭 1072
聰 1070
同樣 1068
堅 1063
傾 1061
夜 1061
膠 1059
雜 1059
樓 1057
釋 1057
舊 1055
登 1048
▁sl 1047
秘 1045
悲 1043
爆 1043
似 1040
幕 1040
猩 1040
秒 1040
宣 1039
透 1037
損 1035
享 1032
若 1031
婦 1030
猜 1030
唱 1028
萊 1028
款 1024
符 1024
翻 1018
固 1015
魯 1015
默 1015
畢 1014
附 1014
妳 1013
王 1012
陸 1012
帝 1010
乾 1009
偉 1008
溝 1008
袋 1008
妙 1007
粒 1007
希 1006
獄 1006
輪 1006
睛 1005
漫 1004
烈 1002
歸 1001
焦 1001
瘋 999
糖 999
貴 994
顏 993
堆 991
遷 991
/ 990
牌 989
遊 989
幻 988
顆 981
滅 980
乎 979
攻 979
塞 977
碰 977
牆 974
迪 973
充 972
急 971
繞 970
鳥 970
按 969
毀 965
尤 964
礙 959
瓦 958
鐵 958
閉 957
冒 955
討 954
旦 953
薩 953
愈 951
揮 950
虛 950
替 949
酷 949
炸 947
吉 946
恩 945
勝 938
獻 936
穩 935
禁 934
拜 932
植 929
露 929
瑪 928
勞 927
游 927
究 927
守 926
屋 922
武 921
操 920
額 917
q 910
封 910
忙 909
震 906
耳 905
奏 903
貨 903
逃 900
劑 899
狗 899
蒙 898
培 897
補 897
授 895
雨 894
聊 893
裂 893
龍 892
憂 891
逐 891
銷 891
頻 891
贏 887
閱 887
途 886
黃 885
跨 883
殘 881
辨 881
脅 880
魔 878
乳 877
循 877
毫 877
繁 877
仰 876
幅 876
佳 872
儀 871
休 864
沉 864
蒂 864
載 864
奈 862
勒 861
慣 860
尊 858
侵 856
鼠 856
喔 855
廳 855
輯 852
庫 851
省 850
膚 849
搞 846
螢 845
摩 844
鄰 843
嬰 842
既 841
槍 841
丁 840
怖 837
絡 835
蘇 835
蜂 835
雅 835
獲 834
幹 833
誌 833
碎 831
援 830
麼 829
丹 828
粉 823
練 822
剩 820
耗 820
勇 819
戴 819
殖 815
抵 812
滋 811
箱 811
訝 811
泡 810
撞 807
丟 805
圓 805
抽 805
托 804
城 803
傑 800
盤 800
徑 798
抓 798
香 798
司 795
洗 794
搜 791
災 791
貼 790
伸 789
糕 789
滑 788
弟 785
邀 785
忽 782
浮 781
莉 781
篇 780
擺 779
航 778
肌 777
弄 776
歡 775
鄉 775
股 774
癌 773
凡 771
榮 771
握 770
廢 769
旋 768
朗 767
拒 766
尾 765
娜 762
誤 761
蹤 761
繪 758
緣 756
硬 754
佔 751
烏 750
』 749
髮 749
『 745
尚 745
頁 744
燒 743
擾 742
洋 742
敢 741
黨 741
扮 740
購 740
桌 739
促 736
葉 736
驅 735
池 733
跡 732
戀 730
稍 729
荷 729
駕 728
朝 726
盛 726
岸 725
偶 724
喝 724
搭 724
茲 723
‧ 722
批 721
純 721
怒 720
污 719
審 718
賺 718
陷 718
夏 715
折 714
苗 712
陰 712
緩 711
鬱 711
谷 709
迎 709
舒 708
寄 707
健 706
孤 706
漂 705
繫 705
答 704
療 702
遞 702
儲 701
彩 701
雲 699
志 697
雪 695
獵 690
埃 689
末 689
脈 689
妹 688
橋 687
般 687
鬥 687
乏 686
研 686
乘 684
兵 679
墨 679
伙 676
掃 676
歷 676
珍 676
駛 676
煩 675
爬 673
您 672
淨 672
售 671
肥 671
仔 670
莎 670
珊 666
雖 663
飲 660
厭 656
肢 652
尖 651
戲 651
軌 651
椅 650
邦 650
, 649
疾 649
腫 648
莫 648
誠 648
拯 646
校 646
孕 642
兄 640
辯 639
暖 637
瘤 637
耶 635
餘 635
咖 634
暫 634
郵 633
響 632
齡 632
眠 631
訴 630
磁 629
鐘 626
酸 625
振 624
殊 623
寬 620
袖 620
喬 618
蟻 618
鬆 617
宜 616
仿 612
菜 612
踏 612
干 611
功 609
啡 609
腿 608
紹 607
惑 604
故 604
徒 603
傢 601
俄 600
午 600
• 599
帳 598
偷 597
胎 597
捐 593
窗 591
啦 590
歧 590
譜 590
凱 589
憤 589
汗 586
輛 586
刑 584
械 584
喪 583
搬 583
甲 581
潮 579
壁 577
悉 577
垃 573
脆 572
圾 571
涉 571
秀 570
聞 569
豐 568
辛 567
累 566
貓 566
敏 564
誕 564
貢 564
偵 563
幼 562
嚇 561
臂 560
遜 560
壯 559
陣 558
鞋 558
盟 557
陽 556
蚊 555
串 554
蜜 553
壽 552
席 551
鎮 548
徹 547
搖 547
荒 547
疊 544
拼 543
肺 543
慈 541
賞 541
奶 539
哲 537
盒 537
帕 536
朵 535
琴 535
譯 535
閃 535
瑚 534
奴 533
麽 533
泰 531
招 529
孔 528
擁 528
é 527
季 527
覽 527
漠 526
麵 526
躍 525
瓶 524
膜 524
趨 524
貌 522
晶 521
嘴 519
兆 518
夥 518
敵 518
菲 518
遙 518
亦 517
雞 515
恢 514
敦 514
柏 514
幣 513
穆 513
訂 513
副 510
薪 509
諸 507
忍 505
翰 504
堡 502
姐 501
妻 500
湯 500
猶 500
渴 499
允 498
艱 497
奪 495
賦 495
杯 494
腐 493
峰 492
敘 492
雕 492
礦 490
龐 489
檔 488
哩 487
鮮 487
喻 485
鋼 484
黎 481
迴 480
羊 479
恆 478
裔 477
騙 477
挑 473
邁 473
陌 469
父 468
鏈 468
沿 467
衰 465
裁 465
鎖 465
挺 464
昆 464
岩 463
恨 463
灰 463
煙 462
趕 462
詢 459
讚 459
橫 458
耐 457
哭 455
噴 453
春 453
署 453
恰 452
映 452
– 450
悅 449
膽 449
尿 448
昂 446
泛 446
拖 444
玻 444
泥 441
敬 440
借 439
稅 439
漢 438
謀 438
鯨 438
督 437
菸 437
邏 437
漁 435
~ 434
羞 434
飯 433
氏 432
癒 429
廚 428
軸 428
鯊 428
填 427
庭 427
瘧 427
側 425
撒 425
束 424
箭 424
罰 424
販 424
噢 421
棟 421
磨 421
梯 420
謊 420
妮 419
摧 419
企 418
委 418
纖 417
截 416
扎 416
抑 416
祝 416
伍 412
潔 410
割 409
牢 409
田 409
擠 408
着 408
駭 408
申 407
黏 407
杉 406
皆 405
宮 404
挖 404
脂 404
腺 403
隸 403
捉 400
擅 400
誘 398
騎 398
牧 395
芬 395
漏 394
插 393
揭 393
欣 393
刊 392
慶 392
擋 389
紋 389
腸 389
餓 388
弗 387
扭 387
康 386
歉 386
藝 386
$ 385
嘿 385
澳 384
猴 384
賓 384
罕 383
& 382
蘋 382
盲 379
泳 378
簽 378
柯 377
胸 377
熊 376
績 376
驟 376
壤 374
央 374
饋 373
蠻 372
遵 372
齒 372
埋 371
臘 371
訓 371
贊 370
刀 369
輩 369
哇 368
措 368
糊 368
蠢 368
飾 368
籍 366
募 365
卵 365
拆 365
欺 365
謎 365
違 365
鼻 365
厚 364
旗 364
璃 364
癮 363
傲 362
刷 362
框 362
沃 362
冠 361
凝 361
掘 361
織 361
脊 360
霍 360
晨 359
聆 359
薄 359
盧 358
臺 357
襲 357
胖 355
魂 355
紐 354
肩 353
瞬 352
涵 350
哦 349
鬼 349
“ 348
厲 348
嘛 348
掛 347
穴 347
滾 346
渡 345
瑟 345
綁 345
慘 343
甜 343
鍵 343
摺 342
枝 342
柱 342
擎 341
涯 341
鑽 341
鴉 340
揚 339
疼 339
梅 338
萄 338
葡 338
掙 337
況 337
蹟 337
陪 337
陳 335
甘 334
吹 333
縫 333
餵 333
侶 332
濃 331
返 330
遲 330
殼 328
矛 328
噸 327
匹 326
桶 326
鵝 326
摸 325
貸 325
鹽 325
俱 323
崩 323
愉 323
韓 323
拋 321
虐 321
迅 321
灣 320
赫 320
醉 320
垂 319
滴 319
塗 318
辱 318
貿 317
” 316
豬 316
域 315
屍 315
諷 315
凌 314
囚 314
盾 314
粹 312
豪 312
躲 312
廉 311
撐 311
牽 311
孫 310
沮 310
濾 310
彎 309
磯 309
莊 308
姻 307
稀 307
膀 307
丈 306
哺 304
湖 304
寧 303
擦 303
爐 303
貪 303
紫 302
昨 301
櫃 301
亡 299
屠 299
煤 299
飽 299
餅 299
濫 298
縱 298
胡 298
叔 297
寓 297
獅 297
呎 296
炎 296
磅 296
賈 296
粗 295
仇 294
捲 294
棲 294
艘 294
隆 294
斥 293
蛛 293
叛 291
后 291
寸 291
獸 291
礁 291
籤 290
飢 290
剪 289
雌 288
藻 287
託 287
逆 287
輔 286
彙 285
氫 284
剖 283
咱 282
塵 282
爛 282
牲 282
皇 281
川 280
杜 280
灌 280
伐 278
剝 278
勃 278
淡 278
婆 277
耀 277
躺 277
京 276
喊 276
役 276
桑 276
欲 276
灘 276
芝 276
茶 276
債 275
妥 275
坡 274
棋 274
螞 274
佩 273
喚 273
姿 273
愚 273
松 273
媒 271
慰 271
蠅 271
俗 270
凍 270
汙 270
趟 270
匯 269
帽 269
慾 269
戒 269
攜 269
柔 269
酵 269
鈕 269
弦 268
怎 268
詳 268
輻 268
籌 267
繩 267
蹈 267
顛 267
冬 265
廁 265
盪 265
禱 265
贈 265
催 264
占 264
髓 264
─ 263
僱 263
驕 263
翼 262
螺 262
糧 261
腎 261
呀 260
憐 260
搶 260
澤 260
冊 259
噪 259
葛 259
址 258
悟 258
惱 258
欄 258
潤 258
説 258
辭 258
娛 257
甚 257
肝 256
齊 256
惠 255
桿 255
棵 255
蜘 255
誇 255
賭 255
巢 254
港 254
罐 254
仁 253
赤 253
准 252
廊 252
褲 251
[ 250
盜 250
耍 250
李 248
珠 248
虎 248
醜 248
姊 247
惜 247
懸 247
宿 245
汀 245
脹 245
衍 244
註 244
逮 244
竭 243
胞 243
呆 242
淚 242
雇 242
叢 241
憑 241
曉 241
濕 241
蒸 241
逝 240
忠 239
悶 239
琳 239
矽 239
孟 238
猛 238
腹 238
譬 238
踐 238
斑 237
伏 236
偽 236
併 235
怨 235
霧 235
須 235
挫 234
幽 233
憶 233
丘 232
奔 232
墓 231
拓 231
詹 231
豚 231
勁 230
恥 230
拔 230
棉 230
譽 230
煮 229
笨 229
肪 229
鷹 229
蝠 228
瀏 227
肅 227
兼 226
契 226
蝦 226
邪 226
魅 226
奉 225
掠 225
郊 225
閒 225
攀 224
睹 224
稿 224
罩 224
葬 224
湧 223
犧 223
瓜 223
畏 223
繼 223
豆 222
跌 222
倡 221
堪 221
盯 221
胃 221
腔 221
蛇 221
醬 221
禍 220
霸 220
痕 219
租 217
蓄 217
裕 217
叉 216
崇 216
彼 216
懲 216
溯 215
烤 215
髒 215
倖 214
劣 214
綜 214
謹 214
騷 214
漆 213
砍 213
醇 213
鹼 213
召 212
憲 212
斜 212
削 211
吞 211
蝙 211
嘆 210
捷 210
吻 209
狼 209
遮 209
吐 208
塢 208
夾 208
翅 208
唐 207
寒 207
彷 207
戈 207
勤 206
懶 206
玉 206
疲 205
蕾 205
骼 205
宏 204
囊 203
掩 203
狹 203
罹 203
逼 203
闆 203
彿 202
概 202
卓 201
吵 201
胺 201
兇 200
浴 200
浸 200
臭 200
鳴 200
撥 199
淋 199
耕 199
⋯ 198
屏 198
癱 198
唸 197
廷 196
敲 196
烹 196
詮 196
姓 195
膨 195
井 194
晰 194
樑 194
番 194
酬 194
暢 193
擇 192
糞 192
庇 191
扯 191
爺 191
籃 191
囉 190
宅 190
屈 190
淺 189
罷 189
艇 189
拘 188
挪 188
沖 187
湊 187
磚 187
竊 187
膝 187
咬 186
尬 186
瘓 186
筒 186
紛 186
鋪 186
嗨 185
尷 185
巡 185
慌 185
斤 185
篩 185
于 184
摔 184
禦 184
豹 184
鑰 184
亨 183
悔 183
謙 183
什 182
祈 182
闊 182
征 181
扇 181
爵 181
蘿 181
裸 181
扣 180
舌 180
謬 180
娃 179
# 178
潰 178
騰 178
匿 177
貫 177
丸 176
坑 176
寂 176
棕 176
泉 176
痺 176
銅 176
沈 175
矩 175
衷 175
鉛 175
内 174
旱 174
棘 174
汁 174
嗅 173
披 173
撼 173
毯 173
炭 173
艙 173
芭 173
蒐 173
+ 172
傘 172
卑 172
撈 172
瞧 172
匙 171
另 171
添 171
祕 171
疏 170
椎 169
肚 169
諧 169
踢 169
劍 168
撰 168
綿 168
諮 168
頸 168
巾 167
忌 167
慎 167
懼 167
昏 167
梭 167
津 167
盆 167
詐 167
鬧 167
扔 166
煉 166
犬 166
狄 166
胰 166
鈴 166
龜 166
们 165
溶 165
薯 165
卷 164
巫 164
洩 164
坊 163
歇 163
碟 163
茄 163
橘 162
欠 162
瞄 162
蝕 162
碑 161
羽 161
蔬 161
陶 161
韌 161
嘉 160
飄 160
禿 159
宰 158
抬 158
淹 158
銳 158
慨 156
榜 156
纏 156
倉 155
兔 155
啤 155
墊 155
頌 155
壇 154
滲 154
碗 153
窟 152
臥 152
薦 152
踩 152
这 152
噬 151
伽 150
峽 150
君 149
哀 149
垮 149
橡 149
緒 149
匠 148
蠟 148
誓 148
鬍 148
乙 147
撕 147
訣 147
寺 146
屁 146
彌 146
漲 146
【 145
】 145
償 145
吊 145
己 145
弊 145
憾 145
撫 145
晃 145
泊 145
♫ 144
唯 144
墜 144
扶 144
砸 144
穀 144
飼 144
勾 143
吋 143
嚐 143
氮 143
磷 143
韋 143
洪 142
烷 142
籠 142
刪 141
皂 141
緻 141
倆 140
炫 140
燥 140
翔 140
腰 140
鮪 140
熔 139
矮 139
肖 139
闡 139
仙 138
划 138
摘 138
渦 138
畜 138
郡 138
旨 137
朱 137
誼 137
賀 137
咪 136
抹 136
秋 136
董 136
冥 135
劫 135
咒 135
嘯 135
寵 135
并 135
抖 135
禧 135
籲 135
蛙 135
錶 135
儕 134
溜 134
秩 134
糾 134
訟 134
詭 134
轟 134
仗 133
捨 133
泣 133
隧 133
颶 133
昇 132
鋒 132
頗 132
鹿 132
嘲 131
嫁 131
嶼 131
穎 131
筋 131
茨 131
躁 131
釘 131
履 130
鮑 130
乃 129
傻 129
喘 129
崔 129
攤 129
漿 129
聘 129
駝 129
黛 129
í 128
窩 128
罵 128
蕉 128
鍊 128
雀 128
駐 128
喉 127
夷 127
穌 127
蕩 127
姑 126
愧 126
戚 126
瀕 126
螂 126
噁 125
徙 125
括 125
柴 125
棍 125
氛 125
篷 125
蔓 125
凸 124
撿 124
潘 124
灑 124
蒼 124
壺 123
慷 123
翁 123
諒 123
軀 123
陋 123
鴨 123
塌 122
撲 122
祂 122
窄 122
腕 122
辜 122
迦 122
桃 121
瘦 121
蓬 121
骸 121
倦 120
嶄 120
撤 120
殿 120
泌 120
澡 120
猿 120
癲 120
幟 119
浩 119
盔 119
纜 119
僚 118
努 118
堵 118
廟 118
挨 118
株 118
皺 118
硫 118
覓 118
顫 118
伺 117
胚 117
= 116
墮 116
嵌 116
稚 116
築 116
粘 116
隙 116
喇 115
坎 115
沼 115
采 115
釐 115
阱 115
拾 114
枯 114
沫 114
脖 114
飪 114
á 113
哨 113
啓 113
庸 113
札 113
菁 113
菇 113
僵 112
妒 112
浦 112
濟 112
挽 111
蔽 111
鸚 111
券 110
嫩 110
曝 110
盼 110
稻 110
奢 109
嫉 109
崗 109
彗 109
槽 109
熬 109
癇 109
薇 109
鱷 109
鴿 109
刮 108
悠 108
惹 108
栽 108
碩 108
賄 108
攔 107
瓊 107
艦 107
芽 107
佐 106
侷 106
慕 106
涼 106
瞭 106
芒 106
裹 106
崛 105
帆 105
押 105
拇 105
敞 105
砂 105
辣 105
姨 104
廈 104
沾 104
淘 104
渺 104
溪 104
滯 104
燭 104
莖 104
逗 104
函 103
喀 103
擲 103
澱 103
窺 103
茱 103
逛 103
駱 103
呃 102
宴 102
抄 102
搏 102
癡 102
祭 102
芙 102
酶 102
旺 101
疇 101
膏 101
鑑 101
駁 101
个 100
癢 100
舍 100
蕭 100
夕 99
弓 99
悄 99
甸 99
禽 99
? 98
扁 98
皿 98
笛 98
蜻 98
鈔 98
頒 98
厄 97
柬 97
楚 97
萎 97
墳 96
寡 96
屆 96
憫 96
甦 96
紮 96
趾 96
饒 96
壘 95
爍 95
蝶 95
暈 94
曬 94
貶 94
贖 94
「 93
枚 93
緬 93
蟑 93
輝 93
拳 92
爪 92
眉 92
竹 92
糙 92
茁 92
蘊 92
襯 92
銜 92
棚 91
虧 91
衫 91
遣 91
撇 90
狠 90
蟹 90
檯 89
没 89
虹 89
蝸 89
齣 89
恒 88
淫 88
繳 88
蜓 88
賊 88
饑 88
僧 87
啥 87
妝 87
岡 87
恤 87
欖 87
焰 87
肆 87
蘑 87
袍 87
賜 87
倘 86
寨 86
爽 86
侖 85
悖 85
泄 85
畝 85
盈 85
嚮 84
摯 84
汰 84
睜 84
縛 84
臣 84
衆 84
鉅 84
骯 84
堤 83
奎 83
崖 83
穫 83
舟 83
裙 83
鄙 83
酮 83
叮 82
憎 82
卜 81
妓 81
橄 81
聳 81
襪 81
鳳 81
ö 80
埔 80
塘 80
峻 80
廂 80
捍 80
沸 80
溺 80
莓 80
褐 80
銘 80
靴 80
」 79
烘 79
瑰 79
稽 79
黴 79
剔 78
妄 78
姦 78
彰 78
攪 78
杰 78
繃 78
靶 78
娘 77
溢 77
瑣 77
疚 77
疤 77
睪 77
砰 77
碌 77
藤 77
閣 77
馴 77
○ 76
捏 76
斗 76
槳 76
瓣 76
紗 76
釣 76
陀 76
勘 75
嗡 75
恕 75
抉 75
氦 75
玫 75
輟 75
酪 75
鎊 75
俯 74
妨 74
嫌 74
弧 74
淆 74
溉 74
甩 74
茅 74
茫 74
闖 74
勉 73
曆 73
杏 73
栓 73
瀉 73
瑕 73
矯 73
紡 73
缸 73
錫 73
鍾 73
頑 73
勸 72
吼 72
嗜 72
嘗 72
擷 72
煞 72
狩 72
痴 72
蓮 72
鋁 72
馳 72
鴻 72
杆 71
潑 71
竅 71
舅 71
艷 71
卸 70
暑 70
梨 70
檻 70
炮 70
鍋 70
丙 69
樞 69
籬 69
迺 69
鋸 69
鞭 69
噠 68
嚨 68
忱 68
椰 68
氯 68
淪 68
琪 68
疵 68
疹 68
碧 68
竄 68
聼 68
鷲 68
ㄧ 67
匆 67
嘔 67
奠 67
廓 67
淇 67
産 67
瞞 67
祉 67
萃 67
虔 67
鍛 67
隕 67
侈 66
崙 66
府 66
斐 66
氨 66
蝴 66
貯 66
隘 66
乖 65
侮 65
唇 65
恭 65
顱 65
俠 64
凹 64
叭 64
懈 64
戳 64
杖 64
欽 64
毅 64
淵 64
渾 64
鉤 64
馭 64
悼 63
慟 63
攸 63
賂 63
娶 62
寞 62
巔 62
斧 62
槓 62
櫚 62
渠 62
煽 62
) 61
匱 61
唾 61
嘻 61
噓 61
嚼 61
嬤 61
帥 61
沛 61
澆 61
眨 61
簿 61
豫 61
鑄 61
鮭 61
昭 60
来 60
椒 60
熵 60
‘ 59
亥 59
兜 59
匈 59
嗶 59
婪 59
戮 59
簾 59
苛 59
菈 59
詛 59
譴 59
貞 59
釀 59
鰭 59
乍 58
妖 58
宇 58
懇 58
橙 58
瀑 58
赴 58
鑒 58
侯 57
倚 57
柵 57
澄 57
燙 57
羚 57
茂 57
轄 57
逸 57
鈣 57
閡 57
霜 57
ó 56
为 56
么 56
乞 56
凰 56
孵 56
扛 56
掀 56
枕 56
箏 56
翠 56
衞 56
蹺 56
哎 55
憊 55
殆 55
瓷 55
萌 55
跋 55
雛 55
傭 54
夸 54
巷 54
熄 54
犀 54
盞 54
絨 54
聾 54
錐 54
陵 54
頃 54
扼 53
撓 53
歎 53
汲 53
渣 53
灼 53
瑜 53
臀 53
謠 53
趁 53
郎 53
鈾 53
冗 52
吶 52
拙 52
栩 52
梵 52
楊 52
漬 52
絞 52
螃 52
訃 52
轍 52
迄 52
咳 51
坪 51
壟 51
娩 51
愁 51
斬 51
朋 51
煎 51
瞰 51
砲 51
窒 51
絶 51
苯 51
蔥 51
誦 51
豔 51
賤 51
霄 51
・ 50
仲 50
嗚 50
姪 50
嬉 50
屑 50
怯 50
摒 50
檬 50
檸 50
瀚 50
盃 50
祥 50
綽 50
賠 50
髖 50
〈 49
〉 49
俘 49
僑 49
昔 49
朽 49
炒 49
蕃 49
蚌 49
逢 49
頰 49
馮 49
_ 48
係 48
吟 48
徘 48
惰 48
柄 48
毆 48
烯 48
狒 48
膩 48
蕊 48
豎 48
賢 48
踪 48
醣 48
傅 47
剎 47
姬 47
櫥 47
毋 47
漩 47
牡 47
狸 47
珀 47
瞥 47
胱 47
貘 47
遽 47
飆 47
餌 47
@ 46
佑 46
呵 46
壩 46
徊 46
悍 46
拐 46
搗 46
洽 46
煌 46
痊 46
癥 46
竿 46
腥 46
茸 46
酋 46
侍 45
僻 45
刃 45
擱 45
昧 45
柳 45
緯 45
肘 45
蠣 45
錦 45
鞏 45
匪 44
吱 44
噩 44
孢 44
岌 44
晴 44
盎 44
縣 44
芥 44
踝 44
閥 44
闢 44
髦 44
鬚 44
鱈 44
体 43
倭 43
圭 43
姥 43
悚 43
拱 43
掏 43
曠 43
泵 43
瀝 43
焚 43
疆 43
瞎 43
瞪 43
禪 43
稠 43
迥 43
韻 43
鹹 43
è 42
儒 42
攣 42
暱 42
猝 42
獁 42
窘 42
舖 42
藩 42
蜥 42
魁 42
ã 41
ç 41
嗝 41
婁 41
强 41
捩 41
淑 41
滔 41
澀 41
濱 41
牟 41
狐 41
瞻 41
簧 41
絆 41
綫 41
繹 41
釷 41
伎 40
咕 40
唔 40
岔 40
搐 40
搔 40
梁 40
棺 40
燕 40
肋 40
蘆 40
誡 40
諜 40
蹦 40
酗 40
鑿 40
顎 40
会 39
咎 39
唉 39
囑 39
墟 39
奬 39
彥 39
樁 39
瘟 39
矚 39
蔔 39
蟎 39
趴 39
跪 39
蹲 39
鈍 39
霹 39
〇 38
僕 38
劾 38
喂 38
恍 38
涅 38
痙 38
睾 38
范 38
蛾 38
蠶 38
賬 38
逾 38
丑 37
乒 37
侏 37
凳 37
拌 37
氟 37
汐 37
紊 37
蛻 37
酚 37
鐮 37
ï 36
乓 36
亟 36
咀 36
啪 36
够 36
岳 36
慧 36
捫 36
斃 36
梳 36
榴 36
樸 36
澈 36
紳 36
綱 36
締 36
脾 36
褪 36
訶 36
鋰 36
鏽 36
陡 36
霖 36
靂 36
凶 35
勻 35
匣 35
囪 35
屎 35
峭 35
橇 35
渥 35
瘡 35
癖 35
綻 35
腋 35
舔 35
葵 35
蔑 35
蜴 35
証 35
諺 35
遏 35
銬 35
( 34
〞 34
噗 34
嚕 34
橢 34
檳 34
歪 34
殭 34
猖 34
痲 34
繡 34
繭 34
翹 34
芯 34
螳 34
諱 34
鑲 34
顳 34
餚 34
餡 34
à 33
哮 33
嘶 33
晉 33
曙 33
槌 33
氾 33
狡 33
綢 33
繆 33
芮 33
蕪 33
褶 33
鄭 33
醃 33
閘 33
ñ 32
哉 32
喧 32
峇 32
懦 32
捧 32
时 32
样 32
沌 32
涸 32
痢 32
秤 32
穹 32
羨 32
膛 32
舵 32
芳 32
薛 32
亭 31
兌 31
卦 31
崎 31
嶺 31
曳 31
朔 31
梗 31
江 31
湛 31
漣 31
玄 31
脣 31
苔 31
蠕 31
褻 31
说 31
輿 31
轎 31
鏟 31
鰻 31
° 30
俏 30
傍 30
嗽 30
嘎 30
扉 30
揍 30
敍 30
榨 30
溼 30
漪 30
獗 30
瘠 30
秉 30
蜷 30
螈 30
袱 30
輾 30
仕 29
剃 29
厘 29
哼 29
嗓 29
嚏 29
垢 29
墻 29
廿 29
拭 29
汪 29
洶 29
痘 29
紉 29
紓 29
繽 29
肇 29
肽 29
菩 29
蔗 29
蠑 29
裘 29
贅 29
鄂 29
鈦 29
鉀 29
錘 29
鎚 29
鶴 29
^ 28
咚 28
哄 28
夭 28
实 28
屢 28
抨 28
灶 28
炙 28
烙 28
燼 28
琢 28
芋 28
蚜 28
蚪 28
蛤 28
蝌 28
諦 28
质 28
蹂 28
躪 28
鐳 28
骰 28
魟 28
ä 27
咯 27
婭 27
寐 27
弭 27
彭 27
撮 27
旭 27
晦 27
暇 27
棱 27
檀 27
焊 27
眩 27
翱 27
腱 27
跤 27
釁 27
鞘 27
儉 26
咻 26
囤 26
憧 26
懾 26
攏 26
晝 26
燦 26
痹 26
睫 26
瞳 26
矇 26
硏 26
种 26
筏 26
粥 26
綴 26
胳 26
蔭 26
闔 26
\ 25
俊 25
劈 25
勳 25
尉 25
惶 25
憬 25
拷 25
攬 25
歹 25
沐 25
爹 25
甥 25
碾 25
筍 25
縈 25
莽 25
虜 25
蛀 25
衹 25
詠 25
赦 25
逕 25
鄧 25
鍍 25
鏢 25
霉 25
顔 25
魄 25
鱗 25
鲁 25
鵡 25
鼬 25
佬 24
凋 24
墾 24
媲 24
御 24
怡 24
挾 24
揣 24
暮 24
梢 24
濺 24
现 24
穗 24
窪 24
緝 24
膊 24
臆 24
臍 24
苷 24
詆 24
謗 24
譚 24
鎂 24
鞍 24
< 23
> 23
ō 23
决 23
卒 23
卿 23
啞 23
嘟 23
寇 23
屜 23
惕 23
憋 23
捆 23
瀰 23
畸 23
瘀 23
礫 23
窯 23
葫 23
蟀 23
蟋 23
誨 23
豌 23
踵 23
靡 23
餒 23
魏 23
鮟 23
鱇 23
齋 23
𥚃 23
ü 22
劉 22
嚥 22
囂 22
奥 22
帖 22
扳 22
抒 22
暨 22
欸 22
焙 22
猾 22
眶 22
睦 22
砌 22
稜 22
簸 22
臼 22
蕈 22
藹 22
袒 22
蹣 22
軼 22
醯 22
釦 22
鈉 22
霾 22
驢 22
鯉 22
云 21
俾 21
别 21
勿 21
慚 21
拂 21
拴 21
掰 21
揉 21
昌 21
炬 21
煥 21
眺 21
穢 21
纂 21
胜 21
茉 21
薑 21
蜒 21
蜿 21
螫 21
蟾 21
豁 21
辰 21
鋅 21
鷗 21
㚈 20
亢 20
剷 20
咆 20
唷 20
喲 20
圳 20
婉 20
嬌 20
峙 20
嵗 20
嶇 20
徽 20
摻 20
枷 20
樺 20
殯 20
濤 20
熨 20
珈 20
琉 20
疙 20
疽 20
瘩 20
硝 20
簷 20
维 20
荼 20
蛆 20
跚 20
蹄 20
遼 20
邱 20
醞 20
錮 20
间 20
霰 20
魷 20
黒 20
× 19
⁄ 19
● 19
僥 19
冕 19
啃 19
啄 19
啜 19
喃 19
喙 19
嗑 19
嘈 19
嘍 19
嘩 19
寢 19
幀 19
恙 19
桅 19
毁 19
氈 19
濘 19
睿 19
篤 19
统 19
耽 19
肛 19
膳 19
蘚 19
褓 19
跛 19
过 19
还 19
遂 19
酌 19
酯 19
镜 19
黯 19
* 18
佃 18
兮 18
几 18
叨 18
嗒 18
壕 18
妲 18
学 18
宛 18
屹 18
弈 18
忒 18
怠 18
敷 18
柚 18
桂 18
榖 18
櫻 18
狙 18
猥 18
縷 18
翩 18
聶 18
虞 18
蝨 18
誹 18
迂 18
逍 18
醛 18
鉗 18
侃 17
堊 17
孜 17
弔 17
惘 17
摹 17
攫 17
斂 17
旬 17
涕 17
湍 17
瀆 17
犁 17
琥 17
瘍 17
眷 17
絃 17
絛 17
緹 17
耆 17
菊 17
蒲 17
蚓 17
蚤 17
蚯 17
蠍 17
觭 17
远 17
遨 17
醋 17
閾 17
骷 17
髏 17
鰓 17
麪 17
鼎 17
ā 16
β 16
― 16
儂 16
冀 16
吳 16
咽 16
唬 16
幢 16
径 16
徐 16
柢 16
棠 16
瘁 16
睞 16
籽 16
粟 16
絢 16
胥 16
臻 16
蔚 16
蜢 16
见 16
蹋 16
輒 16
迭 16
銹 16
鯛 16
α 15
从 15
伶 15
俚 15
动 15
发 15
吮 15
吾 15
咧 15
嘖 15
嚷 15
坍 15
娓 15
嫖 15
孝 15
孰 15
宙 15
寮 15
惦 15
抛 15
据 15
揪 15
昰 15
晾 15
杭 15
枉 15
楔 15
楣 15
楷 15
横 15
淌 15
潟 15
瘙 15
矢 15
礅 15
祟 15
簇 15
綺 15
羣 15
羹 15
耙 15
腓 15
苟 15
蚱 15
諳 15
辮 15
逅 15
邂 15
酥 15
醚 15
鉭 15
錨 15
頹 15
鬣 15
麋 15
麩 15
ù 14
π 14
佼 14
倪 14
冤 14
咔 14
咨 14
啼 14
喋 14
嗆 14
嚎 14
墅 14
处 14
奄 14
媛 14
宫 14
寥 14
忡 14
擡 14
曖 14
殃 14
淒 14
淩 14
滌 14
焉 14
熠 14
燉 14
瑙 14
硼 14
竇 14
箇 14
篡 14
纳 14
细 14
羈 14
謾 14
迸 14
遛 14
醺 14
鐸 14
閹 14
颱 14
馨 14
鳩 14
ø 13
佣 13
凈 13
却 13
厥 13
变 13
吁 13
呻 13
垣 13
奸 13
媚 13
忿 13
惟 13
懊 13
懺 13
摟 13
斟 13
曦 13
梟 13
渲 13
漓 13
潢 13
琦 13
畔 13
砷 13
窖 13
笆 13
箔 13
箴 13
蒜 13
蔻 13
蛞 13
蜀 13
蜇 13
蝓 13
覷 13
詫 13
讲 13
豈 13
貽 13
鈳 13
錠 13
鐺 13
闌 13
题 13
验 13
魘 13
黍 13
ú 12
丐 12
丶 12
侄 12
傀 12
儡 12
儼 12
冶 12
卅 12
噱 12
夯 12
对 12
帷 12
悴 12
惚 12
愕 12
扒 12
撩 12
擧 12
晤 12
朦 12
殞 12
毗 12
气 12
沁 12
泯 12
熾 12
燴 12
矗 12
磺 12
緘 12
縝 12
约 12
给 12
羔 12
脚 12
菍 12
薰 12
蛹 12
蝗 12
襟 12
躬 12
轆 12
遁 12
遑 12
霓 12
餾 12
鯡 12
ë 11
ô 11
̇ 11
关 11
刹 11
咫 11
嘮 11
嚙 11
娼 11
宕 11
宵 11
尔 11
憔 11
扈 11
挹 11
掐 11
揀 11
搆 11
数 11
朧 11
术 11
殲 11
汚 11
汞 11
滄 11
濁 11
炊 11
烴 11
狓 11
璨 11
甄 11
祇 11
秦 11
絮 11
緞 11
繚 11
胼 11
膿 11
芹 11
菱 11
蒿 11
蔡 11
藐 11
蛄 11
蝟 11
訕 11
貲 11
蹊 11
蹩 11
蹴 11
迹 11
鉑 11
鑣 11
閲 11
鞦 11
韆 11
頜 11
; 10
© 10
® 10
ê 10
ī 10
万 10
佇 10
俐 10
兀 10
剋 10
勺 10
叟 10
叩 10
吠 10
啵 10
啾 10
嘰 10
图 10
妊 10
娠 10
惻 10
憚 10
戾 10
拗 10
捅 10
揹 10
搓 10
擘 10
殉 10
殷 10
氓 10
淤 10
瀾 10
瑯 10
璀 10
甫 10
疣 10
痣 10
瞠 10
筷 10
箋 10
篝 10
綑 10
缩 10
翡 10
胝 10
膈 10
臬 10
舶 10
芸 10
苣 10
荊 10
菠 10
萵 10
蛭 10
螨 10
踱 10
轨 10
进 10
遐 10
郭 10
阳 10
隼 10
雹 10
静 10
餬 10
駡 10
黝 10
两 9
俳 9
兰 9
冉 9
剥 9
压 9
咐 9
咸 9
咿 9
哽 9
垠 9
壅 9
幌 9
当 9
徉 9
徜 9
忖 9
恿 9
慫 9
拽 9
撬 9
攢 9
暸 9
榻 9
樽 9
殻 9
汶 9
滙 9
潦 9
濛 9
熙 9
燻 9
盹 9
离 9
窠 9
结 9
翌 9
脱 9
腮 9
膺 9
藜 9
蜍 9
装 9
裨 9
贓 9
踰 9
踴 9
运 9
逞 9
鈎 9
陲 9
霎 9
饉 9
饗 9
鱒 9
齦 9
ì 8
δ 8
อ 8
〝 8
东 8
丫 8
亙 8
儸 8
减 8
吝 8
呐 8
呦 8
呲 8
啕 8
喳 8
国 8
圃 8
妃 8
妞 8
婊 8
孑 8
孚 8
孳 8
将 8
岱 8
幡 8
庶 8
廝 8
彆 8
徴 8
恣 8
憩 8
戊 8
拈 8
拚 8
拮 8
攘 8
敎 8
曰 8
杞 8
极 8
棗 8
椋 8
榭 8
橈 8
毬 8
涓 8
温 8
澎 8
灸 8
熒 8
牴 8
獺 8
獾 8
玲 8
瓢 8
甾 8
眈 8
瞇 8
瞌 8
瞼 8
矣 8
祢 8
禾 8
糗 8
繕 8
脉 8
腑 8
茴 8
蔣 8
裴 8
襄 8
詼 8
諭 8
譏 8
证 8
诉 8
賃 8
踮 8
躇 8
躊 8
軒 8
轅 8
逹 8
邸 8
鈷 8
鎳 8
鐐 8
银 8
问 8
际 8
鞠 8
鷄 8
齧 8
仟 7
余 7
剽 7
劵 7
叠 7
叼 7
呂 7
呱 7
咦 7
嗦 7
噎 7
噶 7
囓 7
囘 7
嫂 7
寻 7
层 7
崑 7
弛 7
彬 7
怦 7
愜 7
愿 7
慄 7
慵 7
懵 7
捎 7
摀 7
旼 7
暉 7
毎 7
浹 7
涌 7
滕 7
犛 7
璐 7
痠 7
癬 7
睏 7
睬 7
磐 7
祐 7
稼 7
糰 7
綵 7
经 7
罌 7
羥 7
羯 7
耘 7
肼 7
芻 7
茵 7
葦 7
蕨 7
蜚 7
蝎 7
螯 7
袓 7
袤 7
褸 7
襤 7
訢 7
詰 7
认 7
让 7
轻 7
邃 7
鈽 7
銻 7
鑷 7
颼 7
餃 7
鷸 7
麟 7
â 6
ل 6
م 6
ي 6
亚 6
佯 6
倣 6
偎 6
况 6
卉 6
单 6
厨 6
叙 6
呸 6
唵 6
喵 6
嗣 6
噥 6
噹 6
囿 6
坨 6
坷 6
埸 6
壹 6
复 6
媳 6
嫻 6
孓 6
孿 6
宝 6
屌 6
崽 6
嵐 6
嵴 6
帚 6
幔 6
廄 6
开 6
彫 6
忑 6
愣 6
懨 6
战 6
摞 6
擄 6
擒 6
敝 6
斕 6
无 6
旳 6
査 6
椿 6
樵 6
氚 6
淖 6
湃 6
状 6
玷 6
琵 6
瑩 6
睽 6
碴 6
磗 6
祸 6
祿 6
稟 6
竣 6
粱 6
红 6
终 6
缽 6
聿 6
肓 6
胭 6
腴 6
苜 6
莢 6
蓉 6
蓿 6
蚣 6
蛔 6
蜈 6
蜊 6
蟒 6
衪 6
观 6
詡 6
誣 6
諉 6
謨 6
论 6
话 6
该 6
貂 6
费 6
赭 6
踉 6
踹 6
蹌 6
蹭 6
輓 6
遢 6
邋 6
釉 6
释 6
鉻 6
鋤 6
鎘 6
鐲 6
铃 6
键 6
閑 6
靛 6
靨 6
騖 6
髂 6
鮫 6
鯖 6
鱸 6
鴕 6
鵑 6
鵰 6
鷈 6
鷿 6
黄 6
鼴 6
£ 5
¥ 5
ω 5
′ 5
▪ 5
与 5
仅 5
佝 5
佷 5
俑 5
倔 5
僂 5
兹 5
凜 5
刁 5
勛 5
匍 5
匐 5
区 5
卯 5
吩 5
咄 5
唑 5
嗤 5
嘀 5
嚒 5
嚓 5
坤 5
塚 5
墉 5
婿 5
嬸 5
寳 5
屯 5
岑 5
岬 5
帛 5
带 5
幗 5
应 5
廬 5
张 5
弩 5
忐 5
恬 5
悸 5
惺 5
戎 5
户 5
捱 5
揄 5
揶 5
擰 5
斡 5
昴 5
曇 5
杓 5
枱 5
柑 5
栗 5
桔 5
棧 5
椘 5
楓 5
榔 5
榕 5
槃 5
樟 5
櫛 5
歴 5
氡 5
氪 5
测 5
浣 5
涂 5
涇 5
涎 5
湮 5
满 5
潜 5
濬 5
点 5
燎 5
牒 5
獠 5
琺 5
璇 5
璜 5
瓏 5
甕 5
疸 5
皈 5
瞅 5
砧 5
祀 5
祼 5
积 5
称 5
稈 5
稔 5
窿 5
竺 5
简 5
粕 5
縟 5
纽 5
组 5
胯 5
脛 5
舐 5
莞 5
葷 5
蕙 5
蟬 5
褥 5
訇 5
謅 5
许 5
试 5
谢 5
蹶 5
蹼 5
躡 5
载 5
达 5
适 5
郁 5
酣 5
酩 5
鈈 5
鈞 5
銫 5
鋃 5
鎢 5
鏘 5
鑚 5
鑼 5
隅 5
难 5
霆 5
韁 5
须 5
颳 5
餿 5
駿 5
騁 5
騾 5
鬃 5
鱖 5
鹵 5
麝 5
鼾 5
 5
` 4
ē 4
ˊ 4
س 4
ع 4
ย 4
ร 4
่ 4
亳 4
佻 4
倏 4
僮 4
儿 4
冪 4
刋 4
剁 4
匕 4
叱 4
吏 4
呤 4
咋 4
咩 4
响 4
哢 4
唆 4
啖 4
嗖 4
嗷 4
噘 4
噤 4
围 4
圣 4
块 4
壆 4
娣 4
媾 4
嫚 4
嫺 4
嬴 4
宋 4
尹 4
岁 4
峨 4
巒 4
巖 4
帮 4
彤 4
怀 4
怵 4
悽 4
愫 4
戛 4
换 4
捶 4
掂 4
搥 4
搧 4
撙 4
攆 4
曹 4
杳 4
梆 4
梧 4
歿 4
氘 4
氰 4
汝 4
沓 4
浬 4
淬 4
渭 4
潺 4
澹 4
烊 4
熏 4
燧 4
爱 4
牀 4
犠 4
犢 4
猫 4
獃 4
玆 4
痂 4
痰 4
痾 4
瘸 4
皙 4
盂 4
盘 4
确 4
碘 4
礬 4
祆 4
祗 4
穏 4
粑 4
粼 4
糜 4
糢 4
緃 4
线 4
绍 4
绕 4
续 4
罗 4
羡 4
舆 4
节 4
苞 4
苺 4
茜 4
茹 4
萍 4
萨 4
蒞 4
藴 4
蚩 4
蝿 4
螽 4
蠱 4
襁 4
覬 4
誒 4
謐 4
謔 4
譁 4
譎 4
请 4
诺 4
贗 4
赢 4
跃 4
跩 4
跺 4
踞 4
踫 4
蹙 4
蹬 4
軋 4
轤 4
较 4
迢 4
酊 4
鉚 4
銑 4
銥 4
銲 4
鋨 4
鋯 4
錳 4
鎗 4
鎝 4
鐡 4
长 4
閂 4
陛 4
隷 4
靚 4
頤 4
顴 4
顿 4
领 4
髪 4
鳶 4
鵟 4
龔 4
龕 4
! 3
¡ 3
¿ 3
æ 3
ð 3
ʾ 3
ˋ 3
τ 3
в 3
о 3
ы 3
€ 3
ㄠ 3
ㄡ 3
㖿 3
产 3
众 3
侧 3
僞 3
兴 3
冲 3
剌 3
剧 3
劊 3
匾 3
厮 3
参 3
吗 3
吭 3
唏 3
嗇 3
嘌 3
嘭 3
囧 3
圴 3
堿 3
墩 3
壑 3
壬 3
头 3
奚 3
娌 3
婴 3
婷 3
嫵 3
孀 3
孱 3
孽 3
尽 3
屣 3
崁 3
巍 3
帑 3
帧 3
广 3
廸 3
异 3
弒 3
彪 3
徧 3
恫 3
惋 3
抺 3
拄 3
掮 3
搪 3
携 3
搾 3
斋 3
暄 3
机 3
杠 3
柩 3
栿 3
桁 3
桎 3
梏 3
榚 3
榷 3
樍 3
檜 3
残 3
氬 3
沬 3
沱 3
涷 3
渙 3
渝 3
滚 3
漱 3
漾 3
潸 3
瀟 3
灯 3
烽 3
燬 3
燿 3
狽 3
猬 3
獷 3
獼 3
环 3
珉 3
璞 3
璧 3
町 3
画 3
痿 3
瘴 3
癆 3
癸 3
皰 3
盗 3
盥 3
眀 3
眸 3
矜 3
矫 3
砥 3
磕 3
秃 3
窈 3
窕 3
笙 3
笞 3
筑 3
箂 3
箍 3
箝 3
籟 3
籮 3
类 3
紕 3
紜 3
絀 3
綹 3
纔 3
继 3
缓 3
编 3
罈 3
罔 3
罝 3
耦 3
腆 3
舛 3
舷 3
艮 3
莠 3
莱 3
蕁 3
蕯 3
薔 3
蚕 3
蛉 3
袐 3
裱 3
褒 3
覦 3
规 3
訛 3
訥 3
謄 3
譙 3
计 3
记 3
賑 3
赚 3
跎 3
踨 3
蹉 3
輊 3
酐 3
釜 3
鈀 3
鈹 3
銨 3
鋌 3
録 3
鍁 3
鍥 3
鍰 3
鎵 3
鏗 3
閨 3
随 3
隠 3
隣 3
雯 3
靭 3
项 3
颗 3
飞 3
饞 3
驍 3
髯 3
鯷 3
鯽 3
鰲 3
鱂 3
鱔 3
鲔 3
鴯 3
鵲 3
鶓 3
鶩 3
鶯 3
鷺 3
鹅 3
麓 3
麴 3
黜 3
鼩 3
{ 2
} 2
 2
î 2
ò 2
ć 2
ğ 2
ı 2
š 2
ǔ 2
̀ 2
γ 2
μ 2
σ 2
м 2
ة 2
د 2
ص 2
ط 2
ك 2
ن 2
ه 2
و 2
प 2
म 2
र 2
े 2
् 2
ḥ 2
ẹ 2
ọ 2
‬ 2
→ 2
∇ 2
− 2
∙ 2
⋅ 2
♯ 2
き 2
の 2
れ 2
ㄅ 2
ㄌ 2
ㄎ 2
ㄟ 2
争 2
亲 2
亿 2
仆 2
伕 2
佗 2
佘 2
俟 2
倂 2
偌 2
傌 2
傚 2
僈 2
儍 2
党 2
兢 2
养 2
冽 2
凯 2
刈 2
刨 2
卍 2
卧 2
厠 2
厰 2
吒 2
吓 2
员 2
咂 2
啁 2
啉 2
喏 2
喷 2
嚢 2
囔 2
囗 2
圑 2
场 2
塲 2
増 2
奐 2
奖 2
妁 2
妍 2
妾 2
姚 2
婀 2
嫰 2
宽 2
寛 2
寰 2
导 2
岀 2
峡 2
嶽 2
师 2
弹 2
徨 2
忤 2
态 2
怔 2
怙 2
总 2
悵 2
悻 2
惯 2
惴 2
憨 2
戕 2
戯 2
扙 2
扺 2
担 2
拎 2
挂 2
挐 2
掣 2
摰 2
擂 2
擕 2
擤 2
擯 2
断 2
昵 2
显 2
晒 2
晩 2
暹 2
曜 2
曽 2
朶 2
杂 2
杵 2
枪 2
枰 2
柺 2
柿 2
桉 2
梠 2
楦 2
槁 2
槐 2
様 2
樊 2
欢 2
欧 2
歛 2
歩 2
歳 2
殄 2
氂 2
氖 2
氙 2
泅 2
洐 2
淂 2
淮 2
渐 2
渤 2
溴 2
滂 2
濳 2
瀨 2
烱 2
焗 2
煦 2
煲 2
燄 2
犒 2
犰 2
狳 2
猪 2
玳 2
珂 2
琶 2
瑁 2
瑋 2
甯 2
电 2
疝 2
疥 2
痍 2
痤 2
痼 2
瘻 2
瘾 2
癟 2
眇 2
矞 2
码 2
硅 2
硒 2
碁 2
秏 2
稳 2
窥 2
竽 2
筐 2
筛 2
籓 2
糅 2
糠 2
紈 2
緲 2
縶 2
縹 2
纍 2
级 2
纸 2
纹 2
绝 2
缐 2
缚 2
缝 2
罂 2
羧 2
羸 2
耹 2
耿 2
联 2
聴 2
胛 2
脢 2
膾 2
臃 2
臊 2
舀 2
芘 2
苑 2
荀 2
莾 2
菡 2
萋 2
葩 2
葱 2
葺 2
蓝 2
薈 2
藪 2
虽 2
蚵 2
蚺 2
蜉 2
蝣 2
螅 2
袞 2
裇 2
裳 2
褔 2
褫 2
褺 2
覲 2
觴 2
訌 2
訐 2
詣 2
諄 2
諢 2
识 2
诏 2
豺 2
賅 2
负 2
资 2
赖 2
赛 2
赞 2
赧 2
踽 2
蹓 2
躂 2
躉 2
躋 2
躥 2
軛 2
轂 2
转 2
输 2
辟 2
边 2
酰 2
釙 2
鉆 2
鉸 2
鎧 2
鎬 2
鐧 2
针 2
閔 2
闗 2
门 2
阪 2
雋 2
雾 2
靦 2
韃 2
韜 2
頦 2
预 2
飴 2
餽 2
饈 2
饌 2
饕 2
馥 2
駒 2
髋 2
髻 2
鬨 2
鯁 2
鯰 2
鰺 2
鱘 2
鲜 2
鴇 2
鵐 2
鵜 2
鶇 2
鶘 2
鶥 2
鸛 2
鹰 2
麾 2
黠 2
黽 2
齙 2
齲 2
 1
 1
¢ 1
¤ 1
« 1
­ 1
¶ 1
» 1
å 1
û 1
ă 1
č 1
ě 1
ť 1
ū 1
ż 1
ǐ 1
ǒ 1
̊ 1
θ 1
φ 1
χ 1
а 1
и 1
н 1
п 1
р 1
с 1
х 1
‭ 1
∞ 1
⋄ 1
ね 1
ㄇ 1
ㄉ 1
ㄋ 1
ㄍ 1
ㄐ 1
ㄑ 1
ㄙ 1
ㄜ 1
ㄝ 1
ㄞ 1
ㄢ 1
ㄣ 1
ㄨ 1
㝷 1
㿂 1
䀚 1
䐘 1
䓬 1
䕶 1
业 1
丢 1
严 1
丰 1
丼 1
丽 1
举 1
义 1
习 1
亜 1
仃 1
仵 1
伉 1
传 1
佪 1
侗 1
侘 1
俎 1
俢 1
俬 1
俸 1
倌 1
値 1
倥 1
倩 1
债 1
倾 1
偃 1
偋 1
偕 1
偣 1
傋 1
储 1
傯 1
傹 1
儅 1
儖 1
儷 1
兑 1
冋 1
冏 1
冻 1
凄 1
凅 1
凑 1
処 1
凴 1
刚 1
刼 1
剂 1
剰 1
剿 1
办 1
务 1
匡 1
医 1
华 1
卫 1
卹 1
双 1
叵 1
号 1
吆 1
吔 1
吖 1
听 1
吲 1
吽 1
吿 1
呯 1
咤 1
哆 1
哌 1
唁 1
唄 1
啐 1
啶 1
啷 1
喫 1
嗄 1
嗞 1
嘣 1
嘸 1
噌 1
噙 1
噵 1
噼 1
嚀 1
嚯 1
囀 1
囌 1
囍 1
囫 1
囯 1
囹 1
圄 1
圆 1
圇 1
圏 1
圜 1
圮 1
坄 1
坚 1
坵 1
垏 1
垛 1
垫 1
垻 1
埗 1
埠 1
堇 1
堰 1
塭 1
墙 1
墬 1
壙 1
声 1
夀 1
奋 1
奕 1
奘 1
奨 1
奻 1
妠 1
妺 1
姍 1
姣 1
姱 1
姶 1
娱 1
婕 1
婢 1
媞 1
媮 1
嬅 1
嬗 1
嬡 1
嬬 1
孃 1
寿 1
専 1
尅 1
尓 1
尘 1
尙 1
尻 1
屄 1
屝 1
岐 1
岛 1
峋 1
峍 1
峛 1
峯 1
崴 1
嶋 1
嶙 1
巳 1
巿 1
帘 1
幷 1
庄 1
庚 1
庳 1
庵 1
廖 1
廩 1
廰 1
廻 1
弋 1
弘 1
录 1
彻 1
徇 1
徠 1
徦 1
徬 1
徳 1
忝 1
怏 1
恪 1
悦 1
惆 1
惓 1
惧 1
惬 1
愄 1
愴 1
慍 1
慼 1
憟 1
懐 1
懟 1
懣 1
戍 1
戟 1
扑 1
扞 1
扦 1
报 1
抻 1
拥 1
挈 1
挲 1
挷 1
捂 1
捚 1
捺 1
掦 1
揆 1
揑 1
揩 1
搽 1
摃 1
摄 1
摆 1
摑 1
摖 1
摳 1
撚 1
撢 1
撻 1
擻 1
攥 1
敕 1
敖 1
斁 1
旎 1
旖 1
旧 1
昜 1
晷 1
暦 1
暪 1
朕 1
朴 1
条 1
杲 1
构 1
枒 1
枓 1
枸 1
柝 1
标 1
桀 1
桐 1
梉 1
棣 1
椴 1
椽 1
楕 1
楞 1
楠 1
楸 1
榆 1
榛 1
榫 1
槨 1
槪 1
槲 1
橐 1
檐 1
櫸 1
欉 1
殛 1
殤 1
殫 1
殮 1
毽 1
氢 1
汛 1
沅 1
沏 1
沽 1
洄 1
洌 1
洟 1
洮 1
浙 1
浼 1
涡 1
涿 1
湄 1
溃 1
滓 1
漥 1
潭 1
澇 1
澍 1
澗 1
濒 1
濔 1
濡 1
瀘 1
炳 1
热 1
煱 1
燜 1
牝 1
犄 1
犎 1
狭 1
猁 1
猎 1
猙 1
猞 1
獒 1
獰 1
玀 1
玃 1
玖 1
珐 1
珞 1
珣 1
珥 1
珮 1
珼 1
瑤 1
璄 1
璣 1
璽 1
瓔 1
瓞 1
瓿 1
甪 1
畦 1
疪 1
痁 1
痱 1
瘉 1
瘺 1
癈 1
癩 1
癵 1
皱 1
皸 1
盅 1
盖 1
眊 1
瞟 1
矓 1
碇 1
碉 1
碸 1
磊 1
磋 1
磧 1
礪 1
祛 1
禀 1
秣 1
秧 1
稣 1
稹 1
穠 1
窍 1
窣 1
窳 1
窸 1
竪 1
竸 1
笈 1
笫 1
筫 1
筱 1
筵 1
篆 1
篙 1
篾 1
簌 1
簍 1
簟 1
簣 1
簪 1
籐 1
籥 1
粖 1
粧 1
粪 1
粵 1
糸 1
紂 1
紿 1
絹 1
綣 1
綳 1
綷 1
綸 1
緋 1
緖 1
縂 1
縐 1
縳 1
繈 1
繮 1
纈 1
纒 1
纓 1
纤 1
纪 1
纵 1
绒 1
绩 1
绪 1
绳 1
绿 1
缅 1
缉 1
缪 1
缷 1
罄 1
罅 1
网 1
罸 1
羌 1
羲 1
羶 1
翕 1
耄 1
耪 1
聒 1
聵 1
肮 1
肱 1
肴 1
胆 1
胍 1
胴 1
胶 1
脇 1
脗 1
脯 1
腈 1
腚 1
腩 1
腼 1
膁 1
膘 1
臚 1
臧 1
舎 1
艄 1
艏 1
芉 1
芦 1
芫 1
苒 1
茍 1
荏 1
荖 1
荻 1
荽 1
莘 1
获 1
菏 1
菓 1
萸 1
葆 1
葚 1
葧 1
蒡 1
蓆 1
蔕 1
蕎 1
蕞 1
蕴 1
薊 1
薏 1
藕 1
蘶 1
蘸 1
蚝 1
蚶 1
蛸 1
蜃 1
蜣 1
蜱 1
螬 1
螻 1
蟄 1
蟆 1
蟳 1
蠋 1
蠐 1
蠔 1
蠵 1
蠹 1
衊 1
袈 1
裊 1
裟 1
褂 1
褙 1
襌 1
襞 1
襠 1
襬 1
覇 1
覈 1
视 1
觎 1
触 1
訖 1
詔 1
詬 1
詺 1
誅 1
誆 1
誑 1
誔 1
諂 1
諤 1
諫 1
謢 1
譟 1
譠 1
讉 1
讖 1
讞 1
讨 1
设 1
评 1
诊 1
诠 1
语 1
谈 1
谧 1
豢 1
貉 1
貎 1
賁 1
賍 1
賒 1
贋 1
责 1
贸 1
贾 1
赠 1
赶 1
趙 1
踡 1
踼 1
躱 1
輞 1
轶 1
辈 1
辍 1
辫 1
迧 1
迼 1
逄 1
选 1
递 1
逬 1
逰 1
遥 1
邇 1
邑 1
邻 1
郝 1
郷 1
醅 1
醍 1
醐 1
醪 1
釒 1
釓 1
釩 1
鈸 1
鉈 1
鉍 1
鉬 1
鉺 1
銓 1
銙 1
銣 1
鋇 1
鋥 1
鍆 1
鍬 1
鍺 1
鏤 1
鏨 1
鐙 1
钱 1
钴 1
铁 1
铆 1
铠 1
锋 1
错 1
锥 1
閏 1
関 1
閤 1
閻 1
闋 1
闐 1
闕 1
队 1
阮 1
阶 1
陃 1
陞 1
险 1
隂 1
隄 1
隋 1
隐 1
隡 1
隴 1
雁 1
雉 1
霑 1
靼 1
鞣 1
韵 1
頇 1
頽 1
顉 1
顢 1
顥 1
页 1
顺 1
颐 1
颤 1
颯 1
飈 1
飊 1
风 1
飩 1
餇 1
餋 1
餛 1
餞 1
餧 1
饜 1
馀 1
駄 1
駑 1
駙 1
騃 1
驁 1
驛 1
骑 1
鬈 1
鬢 1
鬩 1
鮋 1
鰈 1
鰤 1
鰥 1
鰩 1
鰹 1
鱉 1
鱼 1
鲍 1
鲸 1
鳊 1
鳍 1
鳯 1
鴐 1
鴞 1
鴣 1
鴴 1
鶲 1
鶼 1
鷓 1
鸌 1
鼯 1
鼹 1
齜 1
齪 1
齷 1
龄 1
﨧 1
𤔡 1
𤠣 1
madeupword0000 0
madeupword0001 0
madeupword0002 0
